[PAD]
[CLS]
[SEP]
[MASK]
[UNK]
0
1
2
3
4
5
6
7
8
9
ء
ئ
ا
ب
ت
ث
ج
ح
خ
د
ذ
ر
ز
س
ش
ص
ض
ط
ظ
ع
غ
ف
ق
ل
م
ن
و
ٹ
پ
چ
ڈ
ڑ
ژ
ک
گ
ں
ھ
ہ
ی
ے
##ی
##ز
##ل
##ف
##ر
##ن
##س
##و
##پ
##ب
##ا
##د
##ک
##ے
##ٹ
##ہ
##ڈ
##ج
##ھ
##ں
##ص
##غ
##چ
##م
##5
##6
##ح
##3
##0
##1
##2
##9
##ئ
##7
##گ
##خ
##ت
##8
##ڑ
##ق
##4
##ء
##ط
##ث
##ش
##ع
##ض
##ذ
##ظ
##ژ
##یں
کی
##ور
##ان
کے
##ار
میں
کر
##ائ
##ین
##یا
##ال
##وں
نے
کا
سے
کہ
##ری
کو
اور
ان
ہے
ای
##ام
ہو
اس
##اک
پر
##ھی
##ات
##نے
##ست
##یم
##اہ
##اب
##ئے
##لی
##ون
##لا
##می
##یک
##ئی
ہیں
می
##ستان
##نگ
##اد
##اکستان
بھی
پی
##نا
##ٹر
پاکستان
##از
ایک
##ول
##نی
##یس
##ائی
سی
اپ
رو
##یر
تھ
کیا
رہ
##نٹ
##تی
نہ
##ند
##لے
##تے
##شن
##رو
ٹیم
##ٹی
##کٹ
##اری
لی
##لم
##کی
##بر
##وس
وال
کہا
##تا
بی
##رین
##اس
فی
دی
بھ
پہ
##عد
مل
##ائے
نہیں
اد
##کہ
جس
یہ
##اف
##وب
##یل
میچ
##ید
##گر
کرنے
##انے
##ابق
##اتھ
انہ
وہ
##مد
گیا
##ڑی
##پور
پو
فلم
جب
کھ
##ود
بر
تھا
##صل
##نز
##یو
ہوئے
جو
##ارت
ار
بن
مح
##01
اخ
مط
بعد
##یت
کم
تو
مو
##کھ
اب
خان
کھی
کرکٹ
##وم
ہی
ساتھ
مق
##را
بہ
##ارہ
ایس
لیے
اف
##ینڈ
مع
##ئر
مطابق
##شت
##ٹس
سر
##دہ
من
جان
##اں
کام
##گی
سال
##ائنٹ
ال
بہت
انہوں
##پے
##ٹری
کار
##سی
دور
##انی
اپنے
در
##ائن
##کے
##الی
تک
جن
##لاڑی
رہے
##وری
##رے
اداک
کھلاڑی
کرد
کپ
پوائنٹ
گا
##ما
ترین
##کا
##مل
گے
##اہور
اع
##لئے
##دو
کرتے
سو
دیا
ہم
##رف
جبکہ
##یز
لاہور
والے
ہوگ
##وٹ
ام
رنز
##یسٹ
##لہ
کیلئے
##کر
گئی
گی
ہونے
##جہ
##ازہ
فر
اپنی
روپے
##دا
با
ٹی
وا
دو
اخب
جانب
سک
او
##رز
این
انڈ
##لو
دوس
##انہ
##رل
##رہ
##یکن
حا
جائے
کرا
##وا
##چی
##چھ
##نس
##خت
##فی
اے
گئے
##ڑھ
##قت
##قی
کمی
کہنا
ری
##دی
##اہم
##ہر
##لاف
##رح
حاصل
##مبر
مار
ملک
ئی
کھیل
##قع
##بل
##سٹ
حک
پہلے
وی
دن
##کار
##امی
تھی
##00
201
##ریز
محمد
اض
تر
دوران
##ڈی
روز
سب
##ھر
##ومی
علی
##در
##فر
##ائل
جاری
اضاف
##وی
##مین
خو
##نچ
##تان
ٹیسٹ
##201
رکھ
نو
##یاں
##جود
ڈال
بار
والی
##رک
ڈی
##لام
مت
اح
تھے
لیکن
##صد
چھ
##زار
##بی
##امل
لئے
کراچی
تع
##شتہ
ہوا
##زی
##ران
مج
ہوں
پاکستانی
قیم
میڈ
مش
##ارتی
سیریز
زیا
##کٹر
نام
##گل
خلاف
شاہ
اخبارت
مس
بین
جا
عم
##یکس
اخبارتازہ
بل
قیمت
##جی
کھلاڑیوں
##ورڈ
وکٹ
بال
مم
زیادہ
##یہ
لگ
اج
##نج
##مام
##یئر
مقاب
رپور
##وال
اہ
انت
لو
اردو
##مان
کوئی
بات
##ارڈ
دیک
کل
بنا
شک
قومی
مز
ماہ
##شی
اک
حکوم
وز
وقت
رہی
کپتان
رہا
اسلام
انٹر
کمپ
طور
بورڈ
##پر
##ورت
حص
فیصل
##عی
ڈالر
شامل
وجہ
را
##تھ
بھارت
تح
##ائیں
اداکارہ
##ادی
##لیا
مد
##شنل
موجود
##بہ
کسی
چاہ
گز
##اکھ
پیش
تاہم
انہیں
حکومت
شرو
20
مہ
بتا
پرو
##ونوں
ہوئی
میڈیا
سام
تین
نیو
##وڑ
کریں
دیکھ
شروع
است
##لس
کامیا
##کس
بج
کرنا
نی
##لان
##پن
##اور
بتایا
نظ
مر
دے
تج
دونوں
##لاق
ورل
ورلڈ
##صو
##ائنل
بھارتی
گر
##وہ
ایل
بھر
##ائر
اداکار
چیم
##با
##ورن
ٹو
جات
جی
انگل
ہر
اسٹ
##مہ
##ینے
##فت
##لق
اضافہ
##سن
پری
اگ
مزید
طرح
فائنل
سیک
یا
قر
احمد
##والے
##ارے
درمی
##ارف
ہزار
موقع
صرف
ضر
گزشتہ
##کل
سین
تق
بڑھ
فیصد
پہنچ
قبل
بیٹ
باد
##دار
##20
درمیان
اسک
تمام
ائی
شکست
##فا
##پورٹس
دوسرے
##کیٹ
کمپنی
مص
یون
ما
تی
نا
دنیا
کردیا
اٹ
##وان
##مو
##ائد
##اکہ
##شل
##مپ
جیت
ہوگا
10
##یات
##انچ
دیگر
حوالے
##نگز
جانے
کردار
وزیر
لیا
##وسی
ایف
لوگ
چین
فیصلہ
بچ
##میت
##کن
پہلی
##پی
##وڈ
19
ارب
سابق
##ظم
مارکیٹ
شر
ون
عال
##ڑے
##بئی
لیگ
##اج
##ھے
لاکھ
اظ
امری
##قین
مک
##ئن
##ریب
بینک
کچھ
##ڑا
ڈر
فٹ
##عت
##سٹری
اگر
##عث
##ائٹ
##ندی
##عم
##او
ایم
عام
انگلینڈ
##نجاب
مخت
##ونٹ
غیر
باعث
##انا
اسٹی
دل
شہ
فرو
عب
اق
نظر
لن
متع
باز
اباد
پنجاب
##مائ
تف
ریک
اینڈ
سہ
تب
##اردو
بد
کروڑ
##بت
##نو
##دگی
صدر
لینڈ
##سے
##اہر
جہ
چار
میچز
##تو
تیس
##گو
##جن
جم
##ثر
##ٹریلیا
##ائع
کور
الح
خری
سری
##منٹ
##یال
لائن
پیدا
مین
اعلان
##ندہ
کیے
ٹیکس
سم
##انڈ
##ریق
##وز
عالمی
کوچ
##لف
##ضح
##امنٹ
##صیل
ریکارڈ
##وبی
##رکت
مقابلے
##ورنامنٹ
ڈے
##امات
##لاس
##عمال
نئی
دھ
سٹ
##ندگی
دکھ
نق
15
##روف
##تر
##عق
استعمال
##ائز
مکمل
ٹورنامنٹ
بنانے
دس
پانچ
بول
##اپ
##لیم
مال
دوسری
اننگز
اسی
فن
بہترین
شی
سنگ
ایکس
ٹوئ
گھ
##تم
##ایا
پھر
نمبر
انٹرنی
##کردگی
کھیلے
##ارم
چو
جون
##ارک
##افی
تازہ
ایونٹ
کن
##ئیں
##شش
سمیت
پور
کارکردگی
چیئر
##ویں
##یند
کاروب
حصہ
شرکت
انڈسٹری
##صیلات
##سک
ادا
##ریل
گول
انھ
شہر
12
##ائم
علا
##یاد
##رم
11
##ریف
سن
##دید
##رنز
##سیم
واپ
اسے
ٹیموں
رپورٹ
مختلف
لے
فون
##ہار
اخبار
کرکٹر
اہم
##بال
##دال
##ڈیو
##رائع
شع
##مار
##دم
##صوص
سپورٹس
##گرام
شان
نمائ
عر
چیمپ
خط
ٹر
نئے
سامنے
##کو
شو
##گا
کئی
بے
کوشش
بند
سرما
جائیں
##ریع
رواں
فیڈ
دینے
صارف
اند
مجھے
کرے
##وٹو
کامیابی
مست
##ٹن
تیار
##میں
##ونا
از
ہوتا
##ونی
گو
مالی
##پاکستان
##یف
##دان
ایش
سرمایہ
ایشن
ست
کرکے
##اروں
##انس
##سین
##ریشن
اظہار
تفصیلات
چیئرمین
رپورٹر
قرار
طرف
ملکی
ہدا
افر
مگر
جنوبی
سٹی
ووڈ
اٹھ
اپنا
جہاں
گیند
دہ
عمر
بالی
بیٹنگ
##شہ
##چر
##ائیک
##صوب
ذریع
گھر
بنگ
ڈرام
اوور
خود
انٹرنیشنل
جیس
عامر
حال
##بو
شپ
##ڈیم
تن
##ونکہ
بح
بڑی
##عداد
##طح
لنکا
کمیٹی
##صان
سپر
الحق
##روپے
سطح
13
بہتر
امی
##لز
ایسوسی
وڈ
پڑھ
بنائے
علاوہ
نقصان
برس
افراد
مجمو
بلے
کردی
جگ
سیم
شادی
ات
##ولائی
##اکی
لوگوں
اضافے
##الک
کئے
زیر
جارہ
عو
##لاح
14
##ائری
ذرائع
صورت
##اع
کان
16
##کان
##اح
جواب
کامیاب
##اکر
بلکہ
ممبئی
خبر
ریلی
واضح
یو
تقریب
##لیے
فراہم
کررہ
ہوگی
زندگی
##ورہ
انج
##7ء
ائ
پوائنٹس
خصوص
فوٹو
فری
##انہوں
جمع
کیونکہ
نیوزی
الی
##ابر
بو
##توبر
تص
مشکل
##غیر
##لط
##سپ
ویڈیو
بارے
منصوب
##ومبر
متعلق
جل
##ابط
ختم
اوپن
کلب
اش
##ڈر
انتظ
ذریعے
##من
اچھ
##لمان
گرو
30
ہدایت
افریق
جگہ
فیس
##ٹرز
ویسٹ
ممالک
##رس
##بھ
مرت
مدد
##وش
##خوا
زائد
فروخت
18
خیال
صارفین
پہلا
کھیلا
سلس
تیز
تحت
جاتا
##اتی
سوشل
مجموعی
گلو
ڈائری
##بان
شاندار
پس
##اتین
غاز
##ابل
معی
ہوگئی
مظ
صن
عمل
##اتے
##جھ
تعلق
فلموں
##وے
تھیں
جولائی
##عات
##ندھ
نش
##وار
##پو
ہاکی
25
رکھنے
اچ
میز
فیڈریشن
لکھ
##نٹی
نیشنل
##اون
##گز
معروف
##خص
##امد
##کم
##کشن
امریکی
اجلاس
##ینا
خواتین
##شاور
##دف
ملا
##لیس
کھیلنے
عمران
کہاکہ
##فتے
##یور
پاس
##اص
##8ء
دست
##ارا
سٹریلیا
ہوتی
شیئر
##جوان
کاری
17
انداز
خصوصی
اکتوبر
چیمپئن
پڑھیں
ہفتے
حسین
یقین
##پورٹ
یاد
اعظم
##مب
بیان
##اسٹ
اخت
دسمبر
کیس
میچوں
خوش
منت
میرے
صح
##زیشن
##یے
##سان
ایسا
ایپ
شکار
نوجوان
ترقی
منظ
ڈیس
دورہ
ریلیز
پشاور
سع
کب
ٹین
سات
##اق
ڈاک
انھوں
قیمتوں
##تح
کیلیے
جنوری
##یاتی
گروپ
گفت
مارچ
##اسک
200
دیش
ڈیو
بڑے
مرک
شخص
ضرورت
سندھ
حسن
##اٹ
شاہد
مشت
##ونٹی
دع
##ولت
گفتگو
ایسے
##میر
##باد
##سر
وکٹوں
##2017ء
##اش
صوب
##اہد
##لڈ
نومبر
دیتے
ڈائریکٹر
##بے
##فراز
ہوگیا
انڈیز
چل
##جے
ستمبر
سرفراز
##سم
##اریخ
مقر
بنگلہ
کپور
چیف
منعق
انتہ
ناک
ہدف
پوری
سنچ
فل
ویب
22
ڈیسک
##ٹل
ہاتھ
تاریخ
اول
تا
جلد
##اہرہ
ٹوئنٹی
مدا
منا
گیس
کرلیا
##ٹرول
##صر
اغ
##ضی
##ڈل
اسکور
ایو
ہوگئے
پسند
تیسرے
بجلی
##کش
مب
##یسی
پڑ
واقع
مقابلہ
دار
قائم
21
چند
سوال
##سٹر
رق
میری
عوام
اگست
پرف
ور
##خلاف
خوب
پھ
##6ء
رس
سپ
خر
باو
افریقہ
ایوارڈ
##انگ
فو
##9ء
سکے
اختت
فائل
##لوں
##زاز
سلمان
##ابت
چاہیے
##جم
سامنا
##لیئر
##ریک
##ٹو
حصص
بک
سکتا
ہمارے
فروری
پاب
پولیس
سیا
برط
متا
اقد
##جر
وکٹیں
ریا
##صویر
اعزاز
کرتی
عرص
باوجود
رابط
وسیم
##ونڈ
خرید
علاق
لڑ
24
سما
سیمی
مرتبہ
تصویر
مذ
طل
##الو
دیں
کرتا
مئی
فار
تعداد
بنایا
ضرور
مظاہرہ
##گار
##یمز
مداح
روزہ
ہوج
اچھی
شائ
##باح
بھرپور
##خواست
##ویل
ہمیں
ثابت
ڈاکٹر
پار
باہر
##اہے
100
مقامی
##عیب
پال
فتح
ابھی
بغیر
ئے
تاکہ
##کاروں
پوزیشن
##نڈ
##لاحیت
اپریل
واپس
##روں
اغاز
##وت
سلی
کافی
پروگرام
رک
اللہ
میرا
پرفارم
##اگ
##ریڈ
کاروباری
والا
##2018ء
##لوم
رض
کلو
سیٹ
سکتے
فاسٹ
##ہزار
درخواست
جنرل
منی
##سٹی
کیخلاف
50
ٹیمیں
امید
مث
گل
نیوز
وق
دبئی
تاج
ملین
وائر
نیا
شائقین
خات
پابندی
رج
خواہ
انتہائی
23
الز
سمجھ
انڈیکس
##انیہ
ٹھ
کش
میدان
دوست
اسٹار
##لسل
##وامی
سالہ
رنگ
پاک
ٹینس
کمپنیوں
##ندن
اختتام
سونے
##خاب
کاروبار
##ینہ
شعیب
عبدال
عباس
بننے
ٹرافی
وفا
جھ
اوورز
##رار
کوئ
نواز
##ٹڈ
وائرس
ہوتے
الاق
کال
ٹونٹی
26
##فیظ
باک
دیکھنے
بڑا
انتخاب
دوسرا
##مت
##گری
##ٹا
ہیڈ
##فیصد
##ڈو
رکھا
الاقوامی
دوب
صنعت
##لاقات
بز
ابت
##سٹم
جیسے
مسائل
قدر
بلو
##کرو
##نسل
ٹیکن
جرم
دا
لینے
##کاری
منعقد
چیمبر
##بول
لکھا
##زن
##ای
28
شرح
##حال
وزیراع
قرض
##5ء
کرن
##ذشتہ
اچھا
کردہ
اسٹریلیا
کرکٹرز
ملاقات
مصباح
##ارب
پیداوار
مرح
##ینک
یور
##تال
قان
حد
اسٹیڈیم
گئیں
جنہ
کورونا
##واڈ
سینئر
لندن
ویم
حکام
یہاں
##تہ
ریٹ
سنچری
##قل
تش
متعارف
ایسی
ریس
منٹ
اسپ
نک
ممکن
شیڈ
مصنو
##ائس
بیٹس
جاتی
عائد
##ادہ
فریدی
عہ
سف
نما
ایکشن
27
کت
##خر
##کروڑ
افت
عز
##غان
کرسک
پانی
پیغ
عدال
زر
بیر
خاص
سیکر
شہری
##لاکھ
ادارے
رن
سکور
##ائب
##ٹہ
اص
##پوائنٹ
##عقاد
##ڈز
##اط
ہیر
غلط
دوبارہ
والوں
تیزی
افس
چکے
تیل
##قید
##دین
بیٹسمین
##حک
##تیار
گذشتہ
دلچ
جاسک
دنوں
کبھی
صلاحیت
سائٹ
انعقاد
یونس
ہار
حفیظ
##تمام
##ڈیشن
فروغ
##وبائل
##وید
میزبان
##الیہ
##ینی
وفاقی
سیکرٹری
فٹبال
چوتھ
شیخ
تحقی
ہماری
حق
امکان
سخت
کرو
کونسل
متاثر
##روس
ٹرین
بلوچ
معلوم
##حان
بٹ
ذمہ
جاوید
اقدامات
##لیٹ
چھوڑ
رخ
پیسے
لگا
##یادت
سنگھ
تجر
مخ
##20ء
##اشی
سرگر
شیڈول
سود
انے
##لیو
اط
مہنگ
##انوی
برمد
مرکزی
ظاہر
نتی
توجہ
مشتمل
##براہ
افغان
کہانی
برق
فور
اظہر
نمایاں
کامرس
موبائل
قسم
عدالت
##ڈا
29
گرین
##مر
چینی
وار
ٹیکنالو
##دائی
فائ
##عہ
اقبال
رقم
##ویو
شدید
40
##وظ
31
دکھائی
##اہمی
قیادت
##گن
##صلے
دیکھا
##ژن
##سل
معام
ماہرین
اخری
##کوں
##ئیر
##کپ
##امیہ
بچوں
صورتحال
بجائے
خدم
##یکل
مسلسل
ملتان
##یب
کررہے
بزنس
اولمپ
صف
##ہور
رہیں
##اویر
کھیلی
تحقیق
گرد
ناق
خواہش
ہونا
##جو
موجودہ
##ہرست
ایڈ
شہز
اداکاری
##50
سکی
ہمی
کیں
کوہ
ٹیکنالوجی
جسے
انٹرویو
مہمان
مصنوعات
انڈر
سہیل
نص
##سال
مالیت
##ظیم
برقرار
ہورہ
اختیار
##2016ء
تنقید
مداحوں
ایچ
ٹیک
سلسلہ
اکر
تصاویر
##ودی
ضروری
گاڑی
##قبل
کاشت
شعبے
نمائش
ملے
شمار
رکھتے
راول
چکی
کیری
پوس
##نت
##ائیڈ
##راج
بابر
##رات
ماڈل
##ارٹ
جائی
##ٹنگ
##ینج
کیمپ
بنیاد
ہند
##مز
ڈرامہ
پیغام
##دیل
ہمیشہ
##شان
##پنڈی
##2019ء
##ستہ
ٹاپ
مض
بہتری
ابتدائی
پالیسی
برت
مشہور
تیاری
یاس
##ہے
اداروں
اعلی
##حد
##لمی
عرب
##ویز
##صول
مطال
لیں
فارم
ڈھ
سلسلے
فیصلے
انھیں
سعید
وزارت
نیٹ
##یدر
##خب
افری
سید
معیشت
##ازت
سٹیڈیم
ویں
##ریس
قل
طریق
یہی
امریکا
صحت
نجی
شوٹ
##ائش
پن
تجارت
اجازت
کرلی
##ینگ
##19
##جب
##ھا
ایشیا
تجارتی
امد
##کیل
##ائیکل
میگا
##ولہ
گلوکار
##سب
کاروں
کھیلوں
کیوں
ملاز
میل
روک
مقابلوں
خام
کوئٹہ
##مباب
پڑا
وہاں
چاہتے
وزیراعظم
اگلے
ڈیز
تم
نر
کرس
گیمز
راولپنڈی
حل
پرفارمنس
منگ
اسٹاک
سائن
برتری
قابل
انسٹ
رائ
ریاض
سٹار
بجٹ
##یاب
جارہا
ئندہ
برامد
نائب
تبدیل
خز
مستقبل
خطاب
رانڈ
##شد
ٹائٹ
##طور
##وبز
گران
لہ
صد
##فرنس
سربراہ
ایگز
ساز
عرصے
گلی
سوچ
سکتی
رہنے
اقت
زمین
لاہوراردو
##اند
فوری
بت
بنائی
سکیں
تعاون
اکمل
##بانی
2018
##10
##یلین
معاشی
مقصد
وف
خوشی
##ائیو
حیر
اختر
##گیا
خال
تعلیم
##دیلی
یونیور
شہزاد
عرف
##یبر
عمد
پلیئر
پین
خدمات
##کارہ
بخ
##ائزہ
مثبت
مانی
انتظامیہ
2019
##ایک
سون
فائدہ
بطور
کوار
##مود
داری
تبدیلی
کیریئر
جاتے
الیون
##بیر
زمباب
ناکام
##بوط
اسٹیٹ
میر
بناکر
انگلش
##راہ
##لوی
##دیق
##الیف
سیزن
پورا
ٹن
راج
واپسی
جیتنے
##2020ء
تقری
یاسر
##مولی
##سو
چوتھے
عمدہ
##شید
##رن
##پوائنٹس
حریف
سا
اثر
##مح
مقررہ
##ریہ
ٹیل
انع
حیدر
##صلہ
##عدد
ٹوئٹر
##سٹک
پیک
ایگزیک
ٹاس
اکی
کانفرنس
صوبائی
بالر
##زا
پلان
کوالیف
برطانوی
قریب
باکس
##حی
جنگ
گھنٹ
فخر
ٹائٹل
ہاتھوں
اکرم
فیلڈ
ہائی
ہےاس
##دری
سماجی
چیز
انسٹا
##تھی
لوٹ
دیئے
سفر
شعبہ
بھیج
شوبز
متعدد
میاں
2014
راہ
طے
بلا
بولنگ
گانے
خوبص
جنہوں
محنت
ہوسک
##یکا
اندر
سٹری
##ناز
ٹریڈ
##30
طلب
ائے
کوارٹر
سلط
کوہلی
ہندو
خیبر
یونیورسٹی
ایئر
خاتون
کیم
ملی
شہرت
محبت
منصوبہ
بدولت
##صادی
سروس
##کٹس
کس
زلمی
##2015ء
##انٹ
ویل
منصوبے
ڈرامے
ملنے
##15
ملز
##اکت
##چینج
کرپ
تعمیر
##ئنز
جارہی
چوہ
گورن
سنج
زمبابوے
مشکلات
چھوٹ
معاہد
برابر
درمد
پوسٹ
رات
فکس
تقریبا
مضبوط
##کمہ
عث
بس
نظام
بنے
##ابی
داخ
راست
محمود
رائے
ویر
مصروف
افغانستان
کرانے
ہفت
محکمہ
کیپ
پول
ظفر
##فیق
انسان
پچ
ائندہ
##ڈیوس
پویلین
ادائی
یقینی
اقتصادی
عرفان
##چھے
طویل
مقرر
##وق
اسپورٹس
بھائی
جدید
خزانہ
ایکسچینج
نیوی
##ورٹی
متح
دفا
##ادر
##دے
##نہ
##شا
ہمراہ
منتخب
##لائی
##ٹے
35
حالات
تیسری
##ونس
ماضی
فلمیں
احت
##رفت
گزار
سسٹم
فٹنس
ایشین
##ذا
میٹر
منظوری
چیل
##لن
بیٹی
سبب
محف
مطالبہ
پیر
الزام
کاسٹ
2020
لنکن
نمائندگی
##فع
افتتا
نتیجے
سیکیور
مرحلے
##مق
32
##یسے
عثمان
میک
بلند
##جمان
رفت
##نام
اتھ
سلطان
ہیرو
جائزہ
حجم
توقع
##بات
اہل
ورلڈکپ
خس
دیے
##واہ
بری
اسد
ہونگ
شوٹنگ
##روز
نامور
اہلی
سہولت
سالانہ
بولی
##ریم
##پنر
برائے
پھی
بالنگ
شرما
قری
تحف
بیک
ٹیلی
60
فہرست
موسی
##اہی
مقام
اسکواڈ
ہالی
##یدہ
جاسکتا
ہرا
##ختون
انڈین
کمار
##ڈمی
##جنگ
##21
##اتا
گرام
اشرف
پروڈیوس
وس
بارش
سلیکٹر
رون
تصدیق
کورٹ
2017
تجربہ
ہوچ
بجے
فراہمی
بولر
توان
##اتح
پریس
ٹران
اچھے
حقی
اہتمام
اعداد
سائنس
اسٹری
ادائیگی
موا
سیل
بلوچستان
سیکیورٹی
ڈب
لائ
کیچ
##وکٹ
33
باس
سمی
پانچویں
رینک
رابطہ
چیت
##یکٹ
نشانہ
کنٹ
چکا
ممبر
تقسیم
نور
ذخ
سان
##16
گیندوں
جار
مقبول
حو
##ارات
جاپ
تعلقات
##ٹرولیم
##میوں
انسٹاگرام
##جس
سرکاری
امپ
##اقب
ناز
معاملے
یکم
##واں
والد
فکسنگ
اکیڈمی
معاہدے
##فلم
نامی
رینکنگ
گولڈ
تس
چیلنج
##وک
کلاس
مسئ
سست
شریک
ہل
قانونی
کیساتھ
کررہی
##ظر
##ثیت
##سوس
##بوں
مچ
فرانس
دورے
مہم
ناقابل
کیر
ڈپ
توانائی
کنگز
ورک
##واضح
##یام
##علی
افریدی
خیالات
ڈبل
##ٹرل
##سٹائل
رہن
تیسرا
##ائو
##کشاف
شدہ
سوئ
لڑکی
##یسر
دینا
##بن
چوہدری
فصل
موس
شراکت
اشیا
##ابین
##14
##چہ
درامد
محفوظ
2013
##یثیت
##شنز
شم
خالد
سعودی
##ذیر
کنگ
مف
##عنی
پیچھے
انکشاف
عید
##دن
رکھی
##تمی
ہٹ
سج
سیکٹر
بچے
گلوکارہ
##12
##شیا
مبارک
گرفت
زور
خوبصورت
برمدات
تلا
مرد
دلچسپ
##ارٹی
##اول
انکار
رجحان
گند
##یکی
زمان
##17
لہذا
قلند
##راعت
محسوس
ایگزیکٹو
اہلیہ
معیار
نرخ
مابین
##ڈنگ
اعتم
ترجمان
سنی
انجام
##ادری
##جد
شا
مطل
##وپ
نت
منافع
ہسپ
مند
##ولر
نم
ہندوستان
وط
199
بیس
##ضہ
34
خور
رح
##یاس
رپورٹس
بائ
مواقع
تجویز
گوگل
سلیم
پڑے
دستیاب
کری
##اویز
امریکہ
کاررو
میوز
##نر
##املات
##ورز
##وف
##یوں
##حول
زراعت
##ومیسٹک
فنکاروں
ریٹائر
عالم
فہ
##ونیو
##ویٹ
جے
ایا
جوہر
وائ
رابطے
##رب
پاور
معاملات
شاد
اعتماد
##تھر
دہلی
وفد
فض
نکال
فاتح
##ائیٹڈ
ذہ
دعوی
##دود
انص
36
زرعی
گھروں
##دوس
##جمنٹ
لط
یعنی
ماحول
جائیگا
برطانیہ
##ہی
مستح
ئیں
##25
ویمنز
توڑ
بیم
ریل
کہتے
##برد
##قا
##مے
پا
##18
متحدہ
ائوٹ
انہوںنے
بازی
نع
ڈبلیو
##دھ
برامدات
##وئ
سیاسی
ویمن
ڈوی
##فاظ
گرانڈ
عرصہ
جونیئر
علاقوں
##رزا
ڈومیسٹک
ریف
ملازمین
درست
##ڑوں
ویرات
شریف
##نویر
رسائی
ٹیکسٹائل
سکا
کارروائی
ہوکر
منتقل
نار
مندی
##حت
##رت
باب
پک
شوہر
وطن
دہشت
##ینگے
##بح
70
##عدہ
یونائیٹڈ
واٹس
اطلا
قدم
گندم
روڈ
جذ
##ملکی
معلومات
دان
میزبانی
لا
الرح
نگار
##افٹ
حیران
نوٹس
نیویارک
ٹریننگ
مان
کرپشن
##کیشن
##ھوں
##رکہ
کیپر
منفی
سرگرمیوں
##چے
بدھ
تھری
حتمی
بندی
الیکٹر
فلمی
انس
محدود
قوم
##تیب
باقی
روشن
پہن
اوس
پریکٹس
جمعرات
##13
ہفتہ
بلی
##بادلہ
شاہین
حالیہ
##ارث
##دیم
دبا
45
ہوم
رضا
کرنی
کروں
زخ
ساتھی
بش
وقار
حصول
##دیا
خراب
ایکسپ
80
متو
قانون
##اداک
کرنسی
حکم
##حہ
ہونی
کراچ
##عتی
##لک
بازوں
حوصلہ
##ودھ
بیٹے
پائے
کرچ
علاقے
##سپی
وہاب
2016
جنی
ترب
بحالی
##وٹی
##ڈن
زون
منگل
ترجی
کمشن
ہسپتال
##پمنٹ
##کورہ
اداکاروں
ڈان
فرنچ
تولہ
روانہ
شعبوں
سپورٹ
جمعہ
ہال
چمپ
ڈیلی
سیٹھی
##ڈال
37
ہونگے
لگے
##انک
رم
صفر
##ہا
کمر
رانا
دھم
ڈیوڈ
##طل
بگ
انور
سلیکشن
اہمیت
حیات
اتھارٹی
مای
لانے
ماہرہ
حیثیت
پورے
##حکام
ترق
ایڈیشن
##ائج
قلندرز
38
سائیکل
پلیئرز
لگایا
کون
اوپنر
الگ
##200
مور
پارٹی
درجہ
فواد
غور
##ختونخوا
ریم
##یرہ
موسم
##درن
ریونیو
مرزا
فیم
##اہدہ
سماعت
مبنی
##شتر
شاداب
فیچر
کنٹری
منظور
قیام
بڑھانے
روس
کھل
کشمیر
##یکر
تحفظ
##جاز
ہوس
##میل
2015
سٹاک
ضل
##نسر
##اریہ
##چار
تینوں
نکل
اسلم
یوس
##عض
صدی
##ایتی
چھوٹے
تاجر
ہوٹل
اخراج
جوڑی
تربیت
حکومتی
وٹ
شرٹس
##یٹ
##الف
گاہ
تلاش
برو
##گان
کرایا
لوڈ
ذخائر
ائیں
کروا
سزا
گھنٹے
خد
کہہ
عملی
##22
##ورٹ
جاس
الزامات
ٹریل
صلاحیتوں
گیم
قاب
بحران
ترقیاتی
##بردست
درج
دلچسپی
یونٹ
رکنی
حارث
سینما
پہنچا
براہ
چاہئے
شخصیات
##اسی
خریداری
رکھے
##راف
##ینز
ڈیزائن
ولیم
برا
اث
واحد
مشترکہ
الدین
ناصر
ہوئیں
تنظیم
##حکوم
نبھ
##عظم
بیل
##ہبی
دیر
##واش
منڈی
صنعتی
##ضان
تاجروں
زبردست
مالیاتی
بعض
چاہتا
وصول
##ایت
##ریٹری
اسکرین
چیمپئنز
نس
##ئیے
انڈیا
##تل
ٹیلنٹ
لگانے
گلیڈی
##لامی
##دس
نتائج
کمیشن
قط
جانا
##ادیا
فونز
شکل
خوا
دعوت
##اظ
کھیلتے
کوالیفائی
صاح
عماد
##قف
نصف
##میچ
مسلم
##ٹرنگ
امام
ایکسپریس
##24
نجم
شفیق
سیف
مینجمنٹ
بینکوں
حس
##سپورٹس
ڈالرز
ڈویژن
ٹرانس
یاف
##جنٹ
امارات
واب
سراہ
حامل
##رمبادلہ
بالکل
##اگر
متعلقہ
حم
ہےانہوں
ایجن
روش
شیر
##عال
پوچھ
کنٹرول
##مارٹ
جسم
چن
سکول
ورز
مذکورہ
زبان
کین
صبح
##یاز
بیگ
خاندان
##ندر
ادارہ
اینج
اعجاز
ریاست
90
پچھ
اثرات
##خواہ
پروڈ
ایران
اکانٹ
غیرملکی
جاپان
اتو
عظیم
استحکام
ریجن
کالج
ٹکٹ
حمل
یافتہ
تے
جارح
شکا
احسان
اوسط
##23
##حکومت
لمی
فیشن
سائ
ماس
ازیں
دیو
تعین
کسٹم
گرا
انٹرنیٹ
سنبھ
انتق
جیسی
گری
مینز
##شر
##انکا
روایتی
ڈیٹا
منصوبوں
##مپنی
##جا
##ارجہ
ڈیل
داخل
رفتار
##ولنگ
ٹائی
کیف
تحقیقات
یوسف
##عود
سلو
64
اسم
سور
##ھیر
ہوجائے
سیکریٹری
چاہتی
بچن
اصل
چیمپی
##داشت
##ٹین
ٹور
ایر
معاہدہ
##ٹیل
مسئلہ
##فرد
39
ڈرا
##واری
بنیا
باقا
صحافی
قرضوں
گاڑیوں
رانڈر
##رینہ
فنکار
اتوار
##مبلی
سل
گزر
لین
##لیکس
ڈیوٹی
چوپ
منظر
کپاس
نشر
صاحب
##فاق
48
برادری
معاون
انجری
##ونٹس
لاگ
اپیل
##چرل
جت
اسمبلی
ترجیح
سکیورٹی
##بار
##قومی
##شاہ
خواجہ
پرا
مری
بدل
##بور
لگتا
افتتاحی
سیشن
##باس
سرگرم
##پیکا
کارڈ
سکواڈ
کہیں
امن
ٹریلر
اسمارٹ
ٹائم
##باز
فیملی
ایٹرز
2014ء
ڈار
##ندگان
معاش
44
جارہے
انفر
پیٹر
گھٹ
میوزک
##لین
منفرد
##ابھ
75
وقف
مسعود
لاس
پیم
##شے
پیشکش
وہیں
بیرون
عہدید
کمشنر
لمیٹڈ
موٹر
##کرا
بنیادی
براز
پورٹ
امپائر
منیجر
کامی
وابستہ
زخمی
##انوں
انتقال
سیاست
##فق
کھول
کھو
مکی
اولمپک
##بھارتی
چہ
##ٹک
عدم
قائد
##ارق
کوچنگ
##غر
سہول
رد
طاہر
جرمنی
رکن
تربی
جنید
43
کرائی
اوٹ
زین
علم
##رڈ
##ڑھے
دیکھتے
کرسکتے
##ضمام
بحال
ڈراموں
ڈسٹر
بیماری
##11
وائرل
انصاف
اعت
نگر
گرفتار
مدت
سودے
##کت
چینل
ناکامی
بھاری
رضوان
تعریف
پروڈیوسر
انتظامات
ملکوں
گیل
##ونگ
46
پہنچنے
سہولیات
افسوس
بنک
ریلوے
کامران
دب
انتظار
##28
موسیقی
##والہ
طریقے
##کمپنی
پروف
اتر
##ڈنی
نوجوانوں
زرمبادلہ
لگائے
##رد
ہمارا
فرق
طریقہ
##بتہ
##ٹیف
تحریک
فیلڈنگ
##لیف
گیت
اسپنر
55
الم
پائی
چڑھ
فرنچائز
اینڈر
دکھانے
دیکر
حما
پلا
گانا
مانگ
مائیک
مستحکم
خیز
چمپئن
وین
ہدایتکار
##وبہ
ٹری
##وروں
روشنی
شکریہ
چوپڑا
ایڈی
قابو
##گرہ
کمرشل
اتنی
ڈین
کینی
شہروں
رہتے
اخراجات
ہےان
شیئرز
##جوہ
موت
چلا
تعاقب
رمی
ثنا
تربیتی
پیس
گھوم
##ذرائع
سنجے
ذاتی
رمضان
مقبو
جما
اجمل
##خیال
انگ
ناٹ
عاب
##ٹیول
##والی
##مائی
فارمی
##26
ہورہی
##خار
مبارکباد
چیک
بتایاکہ
طال
جنہیں
##27
کٹ
انف
افسران
قتل
##بین
##لیت
کنٹریکٹ
##ڈین
شہریار
خوف
اگے
##ہم
کولم
##ارش
اضافی
حمایت
پذیر
ابلا
##کیا
عزیز
##وانین
پانے
ڈسٹرکٹ
شام
یورو
لاگت
منعقدہ
پہنچے
##بالی
نمائندہ
والدہ
پریانکا
رکھتی
تھام
ندیم
2016ء
خواب
خیر
راشد
فیسٹیول
##جبکہ
اڑ
انضمام
کھانے
لیجن
گرل
تھیٹر
##ذافی
معاملہ
واز
ابلاغ
پل
قوانین
سالگرہ
بولرز
ڈویل
سڈنی
لیتے
خبریں
ٹھی
واپڈا
رشید
##میئر
طارق
##رچ
##رلینڈ
##ائونڈ
##پا
##40
63
انعام
بلال
سٹریلوی
باکسنگ
ہورہا
قبول
ماہی
##پہ
پروڈکشن
بڑھا
##29
معطل
مرا
محض
##پٹ
##ٹرک
اکثر
##تانی
رام
باقاعدہ
##مع
ارشد
##بھی
ہاں
تشکیل
اولمپکس
##ائلز
معمولی
##ریاں
##کھر
##ارٹمنٹ
کیرئیر
تمغ
اعتر
کیٹ
نسیم
##اض
فنڈز
کرائے
مبت
ذکر
صدیقی
انتخابات
اصف
گیارہ
##وث
##خط
علاج
کراچیاردو
##زد
روپ
افریقا
مختصر
اینٹی
منہ
49
ازاں
ئل
##60
کمپلیکس
ایجنسی
اطلاعات
بہن
47
اندازہ
صدارت
مجھ
اقدام
خرچ
معین
میڈل
مہنگائی
سیلز
اعتراف
##الا
رومان
نشان
##اہتمام
سمیع
##چرز
افتخار
##80
##مارچ
خسارہ
##سیل
مبتلا
سوئی
رئی
مزاح
##پیسے
سچ
##خان
پریمیئر
ہاس
بالرز
البتہ
سیکھ
تناز
حالت
ممکنہ
ریسل
##مزہ
##پاکستانی
##تیس
##روم
سنس
باکسر
اونس
##گزشتہ
دفاع
نیپ
کیسے
دفاعی
یوں
سالوں
عباسی
ہاش
پارک
جام
ہراس
##الہ
افز
امت
بنانا
متاث
پراج
اشیاء
نوٹ
کررہا
##شم
قذافی
##داد
سیکن
92
درکار
انسانی
تباد
لطیف
زیراہتمام
##اقت
نامہ
وض
ٹاک
اتنا
##نگٹن
ہدایات
متوقع
##100
##جز
روب
##انڈیکس
##جاج
##دت
پریشان
ساڑھے
حقیقت
مں
ڈانس
تہ
قریشی
ورزی
بانڈ
ہنگ
موقف
مسترد
ویز
بیوی
دیتا
سیریل
##یلی
ائر
##منگ
سڑ
مالک
جارحانہ
عزت
کےلئے
کروانے
دین
خبروں
##شک
موجودگی
باہمی
بھٹ
##لت
کپتانی
سنگلز
مایہ
##حص
##ینئر
صراف
##ائیوں
سفارش
عرو
##وع
##تاہم
##راض
ایوارڈز
تباہ
انو
عبور
فوڈ
اسٹاف
##تک
پٹرولیم
لیجنڈ
##خیر
پاکستانیوں
شمولی
نکھ
روم
##انت
قمر
نیل
ایپل
##فٹ
سرف
عہدے
پلے
واش
ہیل
قیمتیں
دیدی
شمولیت
رنبیر
##کون
مسلمان
##افت
شہباز
ٹک
لمح
اینجلس
قب
##دسمبر
##وئل
اسٹیج
امیدو
داد
اسکول
اتار
یونین
فرائ
جنسی
ڈیم
مشورہ
کارپور
الیکشن
##کسی
تخ
پید
کتاب
2012
کیٹی
دوڑ
ہیںاس
دیتی
شہریوں
پلیٹ
ملت
رہنما
##پل
ٹیبل
##نومبر
فرائض
##جیل
##سام
کوچز
ڈیر
حکمت
چوتھی
دیکھی
کترینہ
دف
دپیکا
موصول
جاسکے
مثال
مناسب
کھیلنا
ملائی
دکھایا
42
لاہورسپورٹس
##اورت
جیسا
نیک
##ادث
چلے
##ائون
غر
##افر
کوریا
صاف
##ہری
##اداکارہ
مقد
مایوس
طی
رکھیں
اگرچہ
##کھی
65
عابد
ملوث
برداشت
##مزید
کسان
احتجاج
پرست
##دوسری
ڈیپ
مجبور
جیمز
##بیو
جلو
بنگلا
انکی
پرواز
تنخواہ
غلام
پیار
تاح
بارہ
دائر
پٹ
ہاف
41
رکھتا
حملے
فنڈ
##وشکا
وائس
فرسٹ
مشاورت
ٹوئٹ
##کھلاڑی
امیت
مشین
ویٹ
وزن
پھیل
##شور
سکواش
##ترتیب
##70
موض
وبا
2013ء
##صور
نتیجہ
##اسم
امور
اصلاح
یک
ویڈیوز
شاع
طبی
روزگار
##وکس
##توں
تحری
لگی
حمزہ
حصے
محروم
ڈویلپمنٹ
مارکیٹوں
والدین
ڈپٹی
دئیے
ضلع
##ٹم
##لیل
مقدمہ
##پیش
حادث
شاید
کرونا
وغیر
طاقت
##کام
ماں
##محمد
دوستوں
کمز
چھٹی
سنچریاں
ٹریف
ریٹائرمنٹ
ایشی
کلچرل
##جون
##عمل
کمپیو
##ملین
کانگ
##الے
بڑھنے
مے
جہاز
روئی
مارک
##پس
##وکٹوں
##صولی
شخصیت
درجے
الیکٹرک
ڈسپ
یوٹی
خانہ
لیٹر
2015ء
جماعت
ٹوٹ
راجہ
لاک
دستاویز
شنا
##ڈٹ
منسل
نگ
##اطر
چیمپیئن
کرینہ
گن
##رناک
##کیو
برانڈ
رہتی
عط
چاند
تاریخی
پچھلے
نج
##شلز
افزائی
نمائند
##کمپنیوں
##عام
فس
##فیع
بلیک
حقوق
منسلک
ہےیہ
##سوخ
بیٹھ
54
انجینئر
نسبت
اوپر
اواز
##راعظم
وقفے
500
##ینڈل
اسٹریلوی
##اپریل
سینٹ
اچانک
لباس
میس
ڈیوائس
سرگرمیاں
دوچار
تیاریاں
##ترین
عالیہ
عارف
بھٹی
چی
خطرناک
##مول
روٹ
62
خاطر
نائٹ
##ھن
##گت
##مقابل
عدن
دھر
پڑتا
فیڈرل
پیداواری
نف
لیون
طب
فارمیٹ
فیفا
معیاری
بنی
زاہد
وغیرہ
##حاظ
ہیںان
فنانس
عزم
##شاریہ
##راء
سنسنی
جسٹس
معاو
تاخیر
##داری
میکس
غلطی
پینل
دھونی
پرویز
لیس
کمپن
ڈرائی
طرز
##ماہ
مائیکل
تما
عدنان
ایونٹس
##وشمار
صوبے
واقعہ
امر
ترسیل
بخش
شین
بیٹھے
دریا
##ٹیز
امیتابھ
محسن
نیچے
رکھنا
53
##برگ
سیمنٹ
ضمن
مرکز
سینٹر
زیب
مشیر
بوجھ
ثق
57
ہوسکتا
وزیراعلی
عاد
منسوخ
دت
اٹھا
انفرادی
علیح
دیکھنا
گرینڈ
##ائنڈ
ٹوی
سراہا
دستخط
مرتب
انوشکا
##زل
زندہ
قریبی
ذریعہ
ڈیبیو
##امہ
خاتمہ
بیرونی
کرینگے
##دل
کھیلیں
تشوی
چوکوں
شف
چاول
مالکان
##نمائ
حقیقی
فہیم
##یدگی
اننگ
حملہ
##نامہ
ٹان
لاز
ریو
سونا
نوید
مطلوبہ
198
جیل
دش
چھوٹی
ترکی
فرین
رش
دلا
نرخوں
باتیں
پانڈ
صنعتوں
ملتوی
گرائونڈ
بالترتیب
##یشن
چھکے
ڈیزل
صوبہ
##ئین
سرفہرست
##دد
##ندرہ
##ٹنر
نسل
مدن
خیبرپ
وسائل
ٹھیک
مشن
پبل
##کلو
لینا
یورپ
کاش
طورپر
برازیل
##ٹنے
##ساس
##سالہ
خسارے
چوری
سیکنڈ
##ہت
پہلو
اشتہ
رول
اسٹر
03
ثانیہ
ارجنٹ
300
اسلامی
56
صرافہ
##مئی
شرجیل
سلطانز
افسر
##جنوری
کمپنیاں
بنائیں
مذاکر
##طی
ہانگ
58
سینٹرل
غریب
لحاظ
زم
مانچ
مدمقابل
شارجہ
##75
##تاق
قائ
کبڈی
سٹیٹ
جوش
##فصیلات
ملائیشیا
##ستمبر
سپلائی
تبادلہ
##بھارت
##وچ
##ھم
کامیڈی
قاسم
فیک
مقبولیت
احسن
حفاظ
جر
##ونڈر
پیپ
##کاوٹ
الحسن
جیک
بیٹری
بولڈ
وہی
باغ
لاکھوں
##قہ
ائیر
ابوظ
ایتھ
پراجیکٹ
ناقص
ویو
##نگی
میٹ
کینیڈا
احساس
ساتویں
52
گورنر
عوامی
کاشتکاروں
پوچھا
واقعات
مانیٹرنگ
##ائشہ
سامان
کرسکیں
02
پھل
بچانے
مہنگا
##ودہ
##یمور
##ساز
ٹویٹ
ممبران
##جولائی
##ٹیم
76
گار
اعدادوشمار
بازار
##نگا
کہاہے
درپیش
ہےس
##دوں
روکنے
عکس
وصولی
بابراعظم
بیجنگ
کھرب
##انو
پندرہ
پچاس
ہیںانہوں
اسپاٹ
##وریج
یورپی
سبز
افریقی
مذاکرات
دعا
لیک
##ادو
فوج
مانچسٹر
دکھا
سفیر
2019ء
اتفاق
##ڈوکون
##ولرز
حلق
##35
ایشیائی
کرچکے
توسی
کمپیوٹر
چلنے
مشتاق
رچر
##ارتھ
##ارڈز
مقدم
##میٹر
تسلیم
قد
##ڈیا
##اڑ
پتہ
مخالف
##ولی
زاد
جانتے
سنبھال
افی
##پیشل
##اتھا
سروسز
لسٹ
فورس
##نمائندہ
پیٹرولیم
ڈبلز
##تیں
##نٹس
##بورن
یار
دم
وکیل
نہایت
بڑھتی
##بادل
گام
مہر
تنویر
##اکے
59
##قات
ایکسپورٹ
##حات
باڈی
چم
اکان
بنیادوں
04
سدرن
دکان
اکشے
شکر
ڈوپ
مچل
بلاک
مختص
85
##الٹی
##بوس
عوض
برسوں
کنڈیشن
##اکا
##پورٹرز
تاحال
جرمانہ
##ائرز
##کراچی
##فروری
کلوگرام
جیتا
خلائی
ہولڈ
نگرانی
وسی
علام
رائونڈ
مقامات
ارادہ
گردی
رنویر
اسان
ایکڑ
صو
ٹویٹر
ہما
پہچ
##یکشن
##جیٹل
راحت
مرحلہ
افتتاح
خوراک
سبزی
نمو
تکلیف
حر
مواد
تنا
##ڈالر
مخصوص
##بٹ
اگاہ
عش
بیج
ٹریفک
ریگو
حض
حساب
##ابطہ
کمیونٹی
وائٹ
##لیگ
کک
متبادل
سول
05
الفاظ
پایا
منیر
##ائپ
کرداروں
کلین
61
##بوت
ماہر
##لینڈ
فائیو
وارنر
##اء
ریفری
ٹیلر
مہوش
لف
انکے
ٹیو
وسیع
پبلک
پلس
اوپننگ
پڈوکون
ہوچکی
ریڈ
##انگل
گراونڈ
اسپتال
چارج
قسمت
جشن
قرضے
ذوال
ذہنی
ہن
تصور
##4ء
دارال
##اگست
##احت
##ڑیاں
چوتھا
##اندی
67
عائشہ
ٹائیگر
06
##اث
##یابی
##امری
معاشرے
یوٹیوب
2010
درو
##شانی
غص
براڈ
جلوہ
پرت
زینت
ڈیرن
دہانی
جمشید
اسکیم
نوائے
پیرس
رکاوٹ
ہزاروں
فرحان
معذ
ارکان
فائر
##اکین
##یما
2018ء
##لاہور
تشدد
51
ٹنڈ
کمزور
پروفیسر
الحال
شائع
کوک
##بیب
سعد
سافٹ
اعشاریہ
##فیہ
واقعے
شکایت
توسیع
ماہانہ
مستقل
دریافت
تکمیل
امکانات
کوششوں
کروایا
##کوٹ
ہوجائیں
##نک
##33
امین
##صلاحیت
ڈیڑھ
##90
##ینڈر
08
##اکتوبر
کرسکے
پراس
مہنگی
##ریلو
ڈیجیٹل
مفاد
تجاویز
مڈل
ہول
##زیہ
سورج
07
نوازا
##ضل
ایٹ
حیرت
ٹم
کلیئر
ڈراپ
اسٹیل
ڈھیر
سرو
رہتا
زیاد
##عز
اٹلی
66
سارہ
خیبرپختونخوا
چھکوں
اسمتھ
اکبر
سٹر
رتھر
کیٹیگری
##ٹیو
##کرز
سپنر
اٹھایا
##45
##ریت
##ٹرکچر
خطرہ
پختونخوا
رساں
##شین
عہدیدار
کیاگیا
چلی
رجسٹر
سیکورٹی
لائٹ
الرحمن
ایپلی
قوت
##میشن
جادو
شفیع
ترک
برین
بیشتر
جاسکتی
##رر
ناد
قطر
خلا
کاٹن
ملبوس
تمغہ
سپریم
دال
##000
##اطف
سیڈ
مقدار
لائیو
دارالحکومت
دنی
متاثرہ
ممبئیاردو
2011
##ہو
پکس
اخر
##عو
بریف
سٹاف
ہوسکے
کینسر
09
کھاد
گوشت
سربراہی
##سٹنٹ
انیس
دیشی
دوستی
##طفی
##ناک
شارٹ
##اوز
مردوں
ائل
اتنے
باصلاحیت
عروج
دفت
پسندیدہ
##جان
خراج
##میری
امیدوار
پریشانی
میٹنگ
##اپنے
ہوگئیں
ریگولی
ہےم
جعلی
ثبوت
روزانہ
استق
مہینے
میلبورن
بم
##ورو
تشہ
اسپین
جیتے
ثناء
پروفی
کینگ
پارٹنر
اپن
ٹرک
جوڑے
پرائی
زی
اراکین
جاں
##99
روی
فلمساز
انعامات
یوتھ
حرکت
68
مریض
پرانے
ردعمل
دلی
##ورس
چھٹے
بلائنڈ
معافی
تسلسل
فیر
مبینہ
پروج
امداد
##ذر
بناتے
ہراساں
لائی
اٹھانے
##یرا
##یمی
اعص
نامزد
فیسر
مطلب
چاندی
چال
##سٹن
کرسکتا
کھڑے
##شو
ٹریڈنگ
##ودھری
##داروں
150
تحسین
میڈیکل
ابوظہبی
حمی
##حید
اعتراض
گریڈ
کورس
چہرے
##ماغ
خاتمے
##ائنگ
گیاہے
وضاحت
فا
چینج
##فقار
##وریا
##دیش
خدشہ
ٹرائلز
پیمانے
اثاث
ووٹ
کروڑوں
سلام
ایج
کردیں
انکم
سفید
نفس
ہیک
شماریات
قیمتی
الف
01
انسٹی
##تاہے
##خصوص
وجوہ
##وڈیو
کشی
تشویش
کلی
##31
##کرکٹ
صبا
2017ء
دہائی
74
##اتر
بلین
##سٹریشن
سائیڈ
##دانوں
ریلیف
مصطفی
درامدات
روبوٹ
ادو
##سط
معاونت
یادگار
گنج
امجد
رڈر
چاروں
افیسر
میسی
##احمد
کہن
بیچ
##کاء
بحث
دماغ
##ورلڈ
اختتامی
الرحمان
##ٹھ
##نڈا
##انداد
##تاز
رئیس
لایا
پہنچایا
کمال
##بینک
سکیم
سلور
##ہیر
شب
سرپر
درمدات
##ٹز
##یح
سنا
دھو
کہنے
مےں
##جائے
##ائرہ
گھریلو
ٹوکیو
بھا
شدت
ممتاز
ہوسکتی
امیر
تھر
اکا
بیٹسمینوں
مدنی
پیدائش
##ختی
اسکر
شوق
فتو
ضیا
##ائٹی
قدرتی
مائیکرو
ریز
ہارون
عورت
##36
##وشن
گھومتی
ملازمت
##ائزر
##گرا
امتیاز
پروفیشنل
رونال
انتہا
دیکھیں
انڈسٹریل
کولمبو
کریم
ہےپاکستان
حبیب
2020ء
##اوورز
زیادتی
بریفنگ
حاجی
##رینا
اسسٹنٹ
مہارت
بیرل
موضوع
میشا
##انج
##اہو
##37
##ینوں
کوششیں
##صوبائی
کارپوریشن
##وزیر
ایڈم
پکسل
اسپن
افواہ
خون
##صود
فتوحات
##طر
کمائی
ضروریات
بھیجا
لانچ
##طرف
پرج
##کھلاڑیوں
ٹام
##عفی
##امدی
تجاوز
95
پٹرول
گردش
دفتر
ہائ
##38
عاطف
##گھ
تعلیمی
فاروق
رجسٹریشن
لیکر
##کوک
ہالینڈ
##فوٹو
انٹری
سبس
قسط
گئ
شاٹ
چلانے
صحافیوں
مقیم
لگنے
سودوں
عاص
ابتدا
سونم
##وین
پڑی
ساری
ترتیب
لطف
جین
##ٹیسٹ
##قسم
کنگنا
##تفصیلات
سیال
سنگا
ہا
##تیش
##ئل
گرم
ازاد
چودھری
حاض
اقسام
چھوڑنے
پارلیم
ملتا
نوٹیف
ریڈیو
اصلاحات
##انھوں
سوالات
کینگروز
ناردرن
متناز
ریسرچ
##حل
##ئم
تجزیہ
مقصود
##نوکر
کےلیے
##چا
##48
کیمرے
پنجابی
مغ
پیپلز
لنک
##یکو
تعینات
دکھائے
تحریر
دیوی
الا
مٹی
##وکٹیں
نان
##عیت
بھیجنے
ہوچکا
کنڈیشنز
نژ
دودھ
سنٹرل
شہید
بیڈ
خطرے
وجوہات
لارڈز
78
ہاشم
ذوالفقار
استاد
کسٹمز
##شات
##لیں
پریشن
نژاد
##بیا
نذیر
سردار
ارجنٹائن
سابقہ
وائی
یوم
##سابق
##ازن
##ائشی
میانداد
روہت
##نیف
##خو
##جران
##ائوں
##65
پناہ
راستے
69
لگائی
خطے
اسح
ریال
72
197
فاط
ملزم
لازمی
##ورتی
دانش
##عے
##افظ
پکڑ
اختلاف
جمہ
رٹس
##انٹر
وے
لم
مون
کیویز
##وریہ
کپل
##ارہے
کیو
ماسٹر
رہائش
صحیح
##ولین
تفری
سکر
##ٹرن
##دہی
اون
اوراس
مقابل
چک
میڈرڈ
##الم
مراد
داخلہ
محب
77
##کھا
##عالمی
اوقات
مناظر
سمارٹ
##طرفہ
رشتہ
پھول
تماش
فوجی
انچ
##ولکر
##وبل
88
پلانٹ
راک
موثر
ذہن
تیاریوں
ملتی
چائے
سکرین
پہچان
بائی
لیول
ادویات
نصب
##ستور
##گوار
اصغر
ایڈو
تل
چاہے
##لیئرز
##انڈر
جج
##اٹا
بینکنگ
زادی
سرخ
##دونوں
##زمین
جیسن
تکن
##لیکن
تھائی
فاطمہ
قید
##ڈے
##الت
پرچ
بلندی
روسی
ڈیپارٹمنٹ
لائنز
ملبوسات
گلیکسی
سپاٹ
معاوضہ
تبص
الب
علاقہ
اکٹ
##انگلینڈ
کاب
خدشات
دھوم
سمجھتے
اسٹارز
اپریشن
کاشتکار
ولیمز
فال
ایوان
خرم
مذاق
تنز
ہیم
فورم
سرگ
##ناس
##تھا
گرنے
##34
اینڈرسن
کاکہ
باولر
##ستی
واشنگٹن
شنو
##ورے
رف
جانیو
ورژن
کوڈ
دھون
کاشف
سرحد
بائولنگ
گورننگ
میتھی
پہنچی
اکانٹس
##ڈیز
سرور
##ائنہ
خدا
دبنگ
طلاق
جوڑ
اندو
باداردو
تفص
لک
اداکاراں
##جوکیشن
پرانی
شناخت
راستہ
##جرانوالہ
##ڈلز
سینی
مول
##رزاق
صوبوں
نشاندہی
رقص
ڈائی
درجن
ٹرمپ
کروائی
ایبٹ
بھول
##ضے
ڈائریکٹ
مرحوم
بروقت
71
جذبات
مرکوز
چاہی
عملدر
تبدیلیاں
تجربے
باولنگ
گرانٹ
##ڑھی
دیدیا
ارمی
پیٹ
سرچ
##پیڈ
ویسے
اٹھائے
ڈالا
تاثر
گاڑیاں
ملیں
پرم
مات
کیمرہ
جڑ
اسما
##مینہ
ارتھر
انعامی
ادھر
دھمکی
توقعات
طلبا
##ثار
ڈوم
تردید
بھجو
شرم
روح
سجاد
ابر
کہی
اگلی
400
ریجنل
مسئلے
ظہیر
یکس
##ظمی
##رجی
عاصم
چکر
ہفتوں
کھلا
##کری
بدترین
کارکن
گلگت
##ننگ
ٹنڈولکر
پاپ
گریز
فیروز
##اجد
ہمت
##نیشنل
مہیا
##ائزیشن
جرمن
جائیگی
##مائے
اشتر
برسبین
باری
کارنامہ
نعمان
کسانوں
##وشی
رٹ
پیٹرول
##فائل
پرائیویٹ
ٹائون
رچرڈ
ئوٹ
قرضہ
زید
ضمان
##گئے
پہنچانے
##لیڈ
رہنا
خریدنے
ویژن
##شاد
##جنوبی
بیٹا
##قے
سستی
سیالکوٹ
ہیو
حادثے
راونڈ
ہینڈ
اثنا
##جھے
##خانہ
میسر
امدنی
پروم
##گے
مودی
واٹسن
سارے
تاب
##39
انگی
##عکس
ہوچکے
84
سٹیج
بینڈ
2009
اربوں
شنواری
شور
مشکوک
عبداللہ
99
چوکے
جیو
واجب
##قار
اشتراک
86
سکھ
تخلی
بخاری
کریڈٹ
جمیل
ریسلنگ
ہوجاتی
ایشیاء
اطلاع
راز
ہوجاتا
اسکے
کھانا
ماد
##امن
ثقافت
گہ
ڈیٹ
##ہیں
##چکا
پروجیکٹ
ین
##شانت
ڈک
لڑکیوں
کھڑا
##سری
بدقسم
ناف
قرن
عادل
گنا
کلچر
##00روپے
سٹریلین
سازی
سپین
##قیہ
##ئرمین
ٹریک
شمالی
ٹی20
اتے
دشمن
ذمے
##ودھا
سلیکٹرز
معمول
سمندر
چیزیں
نیم
حنیف
##وسٹ
بچا
بچی
نمائندوں
ہلاک
##وام
فاٹا
باسکٹ
پیغامات
##ناح
اسٹیشن
کیشن
داریاں
سیکوئل
گارڈ
نوعیت
انحص
نفسیاتی
علیحدگی
ایرانی
کیمی
امان
مفت
##نیوز
فعال
جوہ
ٹرانسپورٹ
رہائشی
##50روپے
مشر
ہیروئن
بچپن
ضائع
رونالڈو
کلک
وو
کوش
##ورین
##ڑک
مارکیٹنگ
رابطوں
نذر
مسٹر
خدمت
##سلونا
ویئر
پریم
ڈیول
##لاع
ضلعی
لائس
جدو
اتح
##ونل
بہاول
مزد
##وفیک
خفیہ
پرس
اوگرا
پیرز
لائف
سمتھ
پے
کیٹگری
##الح
##دیگر
##علوم
فنی
عہدیداروں
پیشہ
##افہ
سبزیوں
ضمانت
وحید
##ورا
ملہ
عار
جھوٹ
استقبال
دوپ
سستا
ہیٹ
ہونیوالے
ڈیف
##لر
ٹیکسوں
##یوال
ڈون
##47
73
##ماٹر
قلت
##نگھ
برعکس
##اشا
ایمان
مرض
گرلز
بوائز
سرٹیف
بعداز
##مانی
نثار
نیپال
فالو
داروں
زبیر
کرلیں
بدستور
رب
غازی
ترسیلات
##گاہ
##2014ء
سروے
اسحاق
کریز
اسٹائل
فیکٹری
ٹیر
ڈو
87
گورنمنٹ
وارم
##ئس
##ضابطہ
تفصیلی
##اضی
مدعو
فضائی
##مند
رویہ
اجاگر
نن
بریڈ
ہری
اسکا
تنزلی
قبضہ
##یکیشن
فیچرز
##یج
سمجھا
مایوسی
اذ
گال
اورم
##اباد
مدنظر
جناح
##گرو
ہورہے
دفعہ
فائرنگ
انحصار
سارا
##چو
سنیل
ایمر
فرنٹ
پیرزادہ
ہواوے
سائیکلنگ
ئرلینڈ
لائسنس
ایجوکیشن
معذرت
اٹھانا
وک
96
یونٹس
تشہیر
##گئی
بانی
طالب
نڈال
اوپنرز
بادشاہ
عہدہ
##یمن
پام
##انگیر
سیکھنے
قی
نچ
سنٹر
196
##واٹ
گوجرانوالہ
ہندوستانی
محتا
بچنے
##کشی
بھگ
##الفت
مزاج
جسمانی
جوائن
ہڑ
جوکو
درواز
بق
##فری
سدھ
یقینا
89
ہےا
میڈلز
اسکی
باضابطہ
##ٹھی
درا
##کیاں
کلومیٹر
اندوز
فائنلز
ریپ
شکیل
چیٹ
کیوی
اوم
##بنگ
##وفیکچر
احتیا
جمی
رع
##صف
مصنوعی
فلا
بائیک
نافذ
مخالفت
چیزوں
ہمایوں
##ائنس
##جہد
ای100
##اسا
کہاں
چائ
فز
بارسلونا
مرغ
195
گلوکاری
ڈٹ
انگیز
79
98
خلیل
##جری
الو
مراحل
شوکت
مداخ
استف
پرجوش
ٹماٹر
##سا
بروز
نویں
تفتیش
ڈسپلے
بوم
سولہ
##عل
##ارج
کول
بناس
##حمد
کرچکی
ناموں
اولین
83
مزاحیہ
لات
سوس
دلہ
امپائرز
##صرف
نکا
کاغ
انکھ
ابو
##نم
نعیم
گوادر
لال
تقریبات
گھنٹوں
بیش
##ذی
##گس
##فن
##طابق
##کیب
راہد
مصر
##داعظم
بدقسمتی
حافظ
ہائیک
جدوجہد
فین
##امریکی
نماز
پروٹیز
عکسب
چھپ
##الب
کابینہ
##اللہ
ڈگری
اتا
کیون
گجر
خوبصورتی
##پہلے
مسلمانوں
مچھ
120
پھلوں
لہر
ایئرپورٹ
##پوت
عن
وش
عبدالرزاق
سوچا
غذ
فرد
فضل
##نگر
نامعلوم
اگیا
تحفظات
کولک
کوٹ
کرسکتی
بنیں
##ملک
شوگر
##ھیں
عمارت
بتائی
چھو
گامزن
تیمور
درد
##49
##ویب
ویک
خاموشی
جانوروں
##اداکار
ماڈلز
محکم
باپ
ارگن
##مئن
بھٹو
جانی
ویلز
صلاح
حلقوں
ولی
راہداری
حسنین
فائٹ
##46
##وایا
لڑکے
خالی
ابھر
بالا
##عیل
بشیر
انرجی
ممبئیبالی
وڈیو
شفاف
82
اتی
ڈھاکہ
ول
97
##نوں
##زیر
##بری
##چین
دوسروں
تجربات
انیل
ذی
انجن
جہانگیر
مینوفیکچر
##اکو
ازادی
نغ
##گاری
سچن
دلوں
عنا
##ترام
چنا
انتظام
گپ
اضلاع
##نگل
فکر
ینگ
حفاظت
تیر
رمیز
پانچواں
جھگ
##ارمیشن
سیلفی
سہارا
فرینڈ
اردوپوائنٹ
پالیسیوں
جنوری2017ء
##بعد
##امید
ولیمسن
شاپ
##اپنی
بانڈز
حوالہ
##کپتان
ہیںیہ
کشمیری
ملزمان
##گال
ابراہ
##ثیر
ریگولیٹری
پڑھی
چودہ
فلاح
بریک
بائیو
مطمئن
فٹبالر
مداخلت
تنازع
کاج
81
##عامر
##کور
فاصلہ
سرگودھا
واٹر
سڑک
##زو
منصور
سائنسدانوں
##کامات
حرارت
انگریز
##ابری
ائرلینڈ
اہلکار
چپ
مورگن
اعصام
جھلک
چاہیئے
سیاہ
صاحبز
الیاس
رجسٹرڈ
صفائی
انڈسٹریز
##چیئرمین
جاپانی
احکامات
ٹار
ایشوریا
##ولز
بچت
##نف
اعتبار
رانی
بنتی
خودکشی
کاوش
دولت
تقر
پیکج
فورا
##ادت
بلت
پھیلا
##سہ
##تالیس
##یش
ایکٹ
رسول
رہنمائی
##انسر
راف
پرک
##ڈرز
ڈرائیور
وینا
ہندی
امتح
سرمائے
بتاتے
کولکتہ
وعدہ
بائولر
فیشلز
کےم
2008
##امین
دوپہر
بلتستان
گنجائش
انکو
ہےواضح
##وائی
قائداعظم
سنجیدہ
انا
کاموں
تیرہ
##گریز
فوٹ
منگنی
##ملکت
##باتی
سنگل
ٹکر
سنگین
راجپوت
فہد
##55
ذیشان
سائٹس
ایڈیلیڈ
مارٹن
اٹھارہ
ارڈر
##داف
##چری
نوٹیفکیشن
شرط
ہےفلم
نارتھ
چرچ
شرکاء
شوز
احترام
شکیب
##انجام
##یکٹس
مشرو
مرچ
نقل
ونڈ
سانی
البم
رفیق
ریٹائرڈ
تعالی
##خی
##ونز
دنیائے
ارٹس
سرزمین
کردیئے
کوالیفائنگ
##مکن
##انکہ
جع
اہداف
بنالی
94
اسٹوڈیو
منز
ایگزیکٹیو
مارشل
##شپ
ارام
ویلیو
خصوصا
دریں
ہولڈرز
سرانجام
بولٹ
فیڈرر
تبدیلیوں
ڈھائی
##گٹ
مذہبی
##کھرب
پشت
اینڈرائیڈ
اقوام
سبسڈی
کولن
باجوہ
سڑکوں
رحمان
اسکینڈل
اینڈی
انٹی
ہوسکا
انفارمیشن
مہنگے
رگ
جتنا
فنچ
اتحاد
ساح
نمٹنے
پیسہ
انکا
##بجے
##ینٹی
جنوری2018ء
##فائنل
ایشز
رنا
##نیو
داغ
ہڑتال
منائی
شکایات
شاعر
فارغ
سفارشات
بیانات
لمحات
ایتھلیٹ
##لور
کیسز
طیارے
بننا
خشک
##قیم
بورڈز
اوول
##غرل
میلہ
لکھے
پریرا
تنظیموں
ڈریس
ستاروں
ہائیکورٹ
##گیند
##عب
سمت
پائپ
پابند
منو
ہاشمی
کردیے
مرتضی
بقیہ
ساجد
راونڈر
##وزہ
##شورنس
فخ
##افروں
عبدالق
افیشلز
پرستاروں
ٹرانز
##لیٹس
##32
##فاقی
ہونگی
##کرنے
##خبر
##لامیہ
جوکہ
سنیما
##اکشی
##لیسی
خواہشات
تباہی
##یوم
پریشر
فیورٹ
##گزین
غربت
لاش
بھیجے
##فرت
افضل
نیلامی
فق
جتنی
گھی
اطلاق
زد
پتا
دستیابی
کمرے
پلاننگ
مقا
##ومیہ
بالخصوص
نکالنے
گیر
##زوں
فیشل
اسماعیل
چا
##85
##ساتھ
کثیر
سوی
محتاط
لائے
نکاح
رینج
جڑی
لیڈر
فلپ
دھن
پیا
##رپورٹ
مراعات
کرنل
غصے
شاعری
انشورنس
تفریح
اگست2017ء
سنگاپور
##42
ریٹنگ
پیسر
ابراہیم
تھرو
##ڈیلی
عملے
نارا
جونز
امتحان
جانچ
بحق
انڈونی
##انہیں
ہارنے
انجم
##ائط
سینیٹر
مغر
2012ء
چالیس
لیاقت
##اسلام
ہولڈر
طوف
##مائش
دراصل
گانوں
حالانکہ
##اتار
ارجن
##عمر
##دما
سکھر
##اسٹرکچر
ایکسپورٹرز
دلائی
ئند
##پری
بہاولپور
##راز
##67
مارچ2017ء
دیکھے
اگئی
باند
93
تنگ
ڈاکٹرز
بندش
شرائط
فرن
ڈائریکٹرز
حمید
دروازے
##ڑہ
چونکہ
##رہے
ہوسکتے
ایجنٹ
عق
میگزین
##ویسٹ
چر
پینے
یومیہ
پرتھ
کلارک
اکنام
2007
اشی
ٹوئی
##اما
نومبر2017ء
ہولی
ٹائمز
دارانہ
الحم
بعدازاں
گالف
##طغرل
ایبل
رائی
نیت
چٹ
حکمران
##کرتے
گلوبل
##دھی
اشفاق
چور
تماشائیوں
قادر
بنگلادیش
کانسی
رویے
ہیلتھ
اختلافات
جوکووچ
چینلز
##میچز
مدثر
وم
حامد
##حالی
پھنس
پارلیمنٹ
##پرو
سننے
مصنف
پیٹرسن
پلاسٹک
برانچ
ایڈیشنل
رگن
لیف
لانا
کھولنے
##اے
انجمن
مئی2017ء
##ائیس
فضا
##پاک
##انسبرگ
ورنہ
ایمپ
##بارک
سوا
عکسبندی
پریٹنگ
##اموں
مسافروں
ایشنز
عند
##نگھائی
##ستا
مشینری
##سٹریلیا
بیگم
قیصر
ہائوس
قصور
مرے
اوران
تلے
حرا
##انگی
نجکاری
جارج
مارچ2018ء
غذائی
کیاہے
##کیٹس
##منگھم
##95
مراک
ود
##اہوں
ایان
تھرل
سد
کنندگان
سوئٹز
کچ
ڈالی
مریضوں
تمہ
اشتہار
##زر
خرابی
##ریندر
چئیر
ذخیرہ
##ریو
دینی
##ھوری
##ائمہ
##ابلہ
##ائزنگ
جائ
##ریا
گائے
##نیچر
ای100انڈیکس
بڑھایا
##ثی
پڑنے
##44
انٹرٹین
بڑھتے
مملکت
المبارک
##ینار
ارہی
##شیات
##لامیے
انہی
بہار
110
##گیر
میجر
رشتے
سپیشل
حج
واک
##عزم
پودوں
میگ
اجے
سیٹس
خورد
مغربی
##تن
کمیون
ٹیرف
##وڑا
بیسٹ
##فیل
اکتوبر2017ء
غم
مہینوں
انقل
سنائی
بدر
غرض
صنم
جاننے
##صباح
خواہشمند
اکاونٹ
مرضی
دوہزار
کہتی
رپورٹرنمائندہ
کپڑے
کرش
لگیں
##رواں
سٹریٹ
صوفی
چاہنے
حیدرباد
بچہ
مکھی
کیش
نیپرا
##اٹھ
کوم
جاکر
بندر
یوا
رضام
سانگ
دسمبر2016ء
##وبھی
غالب
الصوبائی
ڈوب
منڈیوں
##ستانہ
##66
ترم
میلے
سرینا
کوالٹی
قائمہ
کھلے
لفظ
##اکارا
اکث
جامع
متنازع
فیو
بھاگ
##گول
انصاری
##گلنگ
##ملہ
گزارنے
پدما
##چیف
کاٹ
##ماں
##رفی
##41
اخبارئی
کامیابیوں
بیماریوں
##ایف
ستمبر2017ء
رضوی
کمانے
منانے
مجموعہ
ارطغرل
##سٹھ
چلتے
اخلاق
اہلکاروں
ایپس
91
ارسال
##3رنز
##امت
مسجد
##تاب
نفا
##پنجاب
ڈیوائسز
جوہانسبرگ
##قان
ہونیوالی
چاہئیں
تحصیل
ڈونلڈ
##افتی
منشیات
کروائے
سنسر
##فرو
ڈپارٹمنٹ
##ہب
105
پیز
##مینان
گلوکاروں
واجبات
علیم
خوشگوار
##اضافہ
کتنی
ہیںم
حکومتوں
##نڈے
اٹھاتے
جوڈو
ثاقب
##ایس
##فیڈ
طلعت
اسپیشل
جونی
##ائلٹ
میٹرک
ٹے
ماڈلنگ
##88
تقرری
##لنڈر
خاموش
101
قص
چاہیں
اپری
پولو
انگریزی
پیاز
سمجھتا
برمنگھم
ڈیزائنر
رین
غف
125
##وزیشن
##77
نمائندے
خارجہ
فوٹوفائل
تبصرہ
ایکسپو
##ناسب
جال
اسکواش
کوشاں
شمسی
عبدالرح
سنچریوں
##گریٹ
##شریف
چیمپیئنز
دلہن
ہتھی
موسیقار
رائٹر
استعفی
##منٹن
##رائی
کےمطابق
##لح
خبردار
##الیا
اندازی
چانس
تعمیراتی
##ستھ
##ائق
بازاروں
##کوچ
عاش
سنہ
سوار
انڈونیشیا
ونگ
##اخ
استفادہ
دلکش
کانٹی
##ظمین
عندیہ
کنی
سیاح
پذیرائی
##2رنز
جنس
قربانی
طلبہ
ٹیز
##قلی
سح
مغل
عارضی
پرعزم
##گیاں
چلتا
نصیر
ڈس
##اکار
خل
سنوکر
کشیدگی
بیورو
رومانوی
2009ء
فول
اٹیک
گوہر
ڈیولپمنٹ
پیرا
جنون
بھج
تنازعات
##3ء
##ازی
##طینہ
وقاص
##وئی
فرنیچر
رئیل
سکس
چیمبرز
##صب
انسانوں
پٹیل
##شاہد
دباو
روانگی
انٹربینک
128
برینڈن
نومبر2016ء
میرٹ
فائی
پردہ
##جسٹ
پیکیج
##یئرز
حامی
##4رنز
اطمینان
رابی
##میڈیا
عشق
##لیوں
چھٹ
ہےکہ
پیچ
اسٹریٹ
ادائیگیوں
واقعی
اپریل2017ء
تھااس
گھنٹہ
تکنیکی
کیپٹن
عتی
کھڑی
دسویں
##گیندوں
نفاذ
حفاظتی
متحرک
جائیداد
کھا
فرانسیسی
مفید
اسٹریلین
سترہ
ملنا
حضرت
پرکشش
سیمینار
فروری2018ء
ہنگامی
رافیل
گااس
کما
الود
جنھوں
مینی
فرا
اترے
تحفہ
پہلوان
کنس
بادی
فروری2017ء
خاصی
ناول
تحقیقاتی
ہرایا
باتوں
##ینس
پختون
##وڑی
##پورہ
فح
صنعتکاروں
وسطی
گردوں
ہوجاتے
اصول
چھوٹا
نصر
ملکہ
مقاصد
کمنٹ
مصروفیات
تخلیق
بٹن
یارک
ریفنڈ
پرنس
اسانی
رقوم
ہےایک
کیمیکل
دھی
##خبری
جنگل
##ٹلر
ثقل
##کمل
سازش
##برط
منتقلی
باسانی
ملتے
ایوب
بچھ
خارج
فریم
محبوب
پیج
##رفراز
خطرات
ٹارگٹ
پڑھیے
##گلو
دائرہ
سجل
##دوسرے
تد
چڑھا
بلندیوں
اسکرپٹ
شنگھائی
تفصیل
##ادم
##سٹار
##ٹیج
انتظامی
ڈرون
سکندر
خٹک
چئیرمین
اکھ
تار
پراپر
##یئن
##راور
##ورنیا
قرنطینہ
بائیں
دستاویزات
##ینڈس
##کریہ
اکائ
رخص
##شیڈنگ
نکلنے
عبدالح
ابادی
عہد
شت
کرائ
ایکسائز
250
صدارتی
گیاس
##لانا
موہ
مولانا
سمری
مختار
##سکو
بکی
فان
2000
جذبہ
ڈسٹری
ڈیوس
##ائوتھ
کرائم
سرجری
ہدایتکاری
جنم
کیاج
##نیوزی
کراٹے
میکسیکو
##92
دہندگان
پچیس
خوشخبری
رونما
##یسن
شفقت
پشن
گرمی
##اعظم
علیحدہ
پوسٹر
کیمرا
مومن
جانتا
مظفر
راہول
دوں
سوم
##ظرین
موڈ
عک
##طہ
##ئرز
میگاواٹ
گہری
نشریاتی
سشانت
سنہا
لیور
##برا
ہیری
طلباء
##زدگی
نواب
لمب
کنٹین
ٹھویں
فیصلوں
موزوں
روابط
ویلیئرز
##یمپ
ایسٹ
شیل
##ائیکی
کنسر
جمعے
دفاتر
دسمبر2017ء
ڈالنے
چیمہ
اعلامیے
براو
بڑھے
عہدیداران
##اجمان
مئی2018ء
##الدین
پیڈ
چھکا
سوسائٹی
کراچیا
ناراض
ضیاء
##جہاں
ویلتھ
بیڈمنٹن
##اڑی
حساس
جیکس
چون
رشی
##پال
بمق
##وفاقی
##انوے
لگاتار
شائر
اکنامک
##ریعہ
پان
ریکارڈنگ
علامہ
##یرو
سمند
فف
ہیںس
نگری
##ائلڈ
کےخلاف
##منٹس
کارپوریٹ
صاد
تمیم
ہاوس
ٹیکنیکل
حیدراباد
##جیئم
لوڈشیڈنگ
نجات
جون2017ء
جولائی2017ء
گرفتاری
کہناتھا
ٹورنامنٹس
قدیم
پھینک
دانوں
راجر
ڈیلرز
طبقے
متفق
عبد
وائٹس
##96
سرکار
تنخواہوں
##اتھن
توازن
علاقائی
##43
##رزمان
نیب
کڑی
طاقتور
انٹرٹینمنٹ
سیاحت
حقائق
لمبی
ٹکٹوں
##کول
برف
بلڈنگ
ندا
لوٹے
##ریٹ
مارجن
نفرت
منتظمین
مہدی
یکساں
فرید
سپن
##عمران
واٹ
کامیڈین
اسٹوریج
خالص
##نجر
ناظرین
انجینئرنگ
سینک
ٹیزر
##زانہ
اسٹین
واہ
مظاہ
اشیائے
ادب
##ڈنٹ
رائونڈر
اورس
ٹیوب
اپریل2018ء
##ئنگ
براجمان
مارش
##پھ
خوشحالی
بیمار
سوناکشی
لڑائی
چیمپین
بنگلور
منزل
لیلا
کاغذ
سلوک
اعوان
ٹیوٹ
گایا
##چل
کیااس
##دھا
منایا
خامی
دلو
ڈھانچ
لود
عناصر
تھاکہ
گوشو
رونمائی
زمانے
سفارت
اشتہارات
حصوں
جانسن
مسکر
##ٹرا
##گیس
افیشل
سوئنگ
اپس
غائب
##ائمنڈ
ٹیکسی
##بیس
##باب
##جیب
کلیم
گون
سیون
تھانہ
##دیپ
##ائٹس
اگئے
اکتوبر2016ء
اکثریت
##ندرا
تھوڑی
رحیم
ستارے
میتھیوز
##مانیٹرنگ
ناسا
بور
مظہر
ساہ
اشارہ
فاریکس
ڈالرکی
تاز
بندھن
ہیںپاکستان
##ینو
مزاحمت
پہنچیں
پودے
نزد
قرعہ
کرنٹ
سختی
ٹاسک
سنگاکارا
##وسری
درمدی
پرچم
پراپرٹی
ڈسپلن
ثقافتی
کھوکھر
لمحہ
##2017
سائوتھ
##زہ
برگ
##راط
نبی
نشست
##یاض
100انڈیکس
گیٹ
اسپیڈ
جوز
مذمت
مرغی
فلور
صدیق
کامن
وفات
گزرنے
2021
##اہٹ
غزل
سادہ
##اتاہم
براوو
کیلی
##لیٹی
مارکیٹس
گلے
سارک
بوس
فانڈیشن
سراہتے
##98
بپ
ریسٹ
##جیت
سکاٹ
##ڈاک
اعلامیہ
##ٹیکس
لیئے
کتنا
چمک
ماف
اتھلیٹ
طالبات
شامی
جاندار
##شعیب
##ہروں
##جانے
##انز
جرائم
##بز
##68
مذہب
پرائس
دیوار
##کاروب
امریکن
کراچیک
##57
##یریا
سائبر
سینکڑوں
##قیقت
دیوگن
دری
مجموعے
##زئی
مجوزہ
گولز
تاجران
مقبوضہ
##ھیل
عطا
سیر
##یری
چائنا
برسی
پروٹ
##ضحی
ڈیرہ
رائل
سرا
##ذہ
عقید
مقدمے
جرمانے
130
کرون
شبیر
##اسن
صادق
##فیس
##قریب
ساتھیوں
ایسو
کلام
160
ڈول
جمال
##انشل
ٹیگ
##علا
##6رنز
بینکاری
سمجھنے
لیتی
پرتگال
درخواستیں
مستحق
##ٹیٹ
سٹیل
جائینگے
ہےذرائع
منتظر
فریال
زیرو
فرنچائزز
گےاس
برہ
ئین
پرنٹ
حماد
##ابھی
وکلا
کریگی
حریم
جیکسن
خوبرو
رائیڈ
##کٹرز
سینا
فکشن
الط
##پشاور
800
نرگس
ناظم
##زیب
##قانونی
##خوش
##یادہ
جلدی
فصلوں
ایرون
##داز
اپنایا
##ظاہر
##یموریل
##قیمت
ریسلر
ڈاکٹروں
##زید
نکھوں
##چکے
سند
روایت
##کہا
##9رنز
وفاق
میدانوں
مسافر
اثناء
اگاہی
بیلجیئم
دراز
کنسرٹ
##بنگلہ
مسابق
فوکس
اترنے
ثانی
نظم
اختیارات
##وابط
فیل
اکتوبر2018ء
ماسکو
روکا
بنتا
کرسٹ
بٹلر
غصہ
##یلا
نقصانات
سگن
میون
ایجاد
##ائیاں
##واعد
تائی
واں
میموریل
##اصل
مفادات
کامیابیاں
ہےب
##دھن
پت
مواز
عجیب
رجوع
کتنے
قسمتی
گود
##1رنز
##کنار
بابا
##مپٹن
بوائے
انسداد
کائن
گولڈن
گہرے
اباداردو
ٹوینٹی
##کھیل
جائز
سردی
نیلم
##گنی
ارٹ
الات
اسرائی
##کمی
##ٹیشن
##ادے
طبیعت
##چکی
##بیونل
140
ساو
چوب
انشا
ثقلین
عتیق
سرکل
نامزدگی
درخت
##تما
وسط
##78
600
زیور
ائند
##ماد
تھرڈ
چھین
تناسب
جذباتی
سبقت
گڑھ
ہےپی
ڈیلیٹ
##پت
##بیل
خاں
ٹائیگرز
کرائسٹ
##وانا
حنا
جولی
کمپنیز
غا
درامدی
بھائیوں
##64
##اکس
کوالیفائر
##ارو
اخبا
سلوا
اسکاٹ
بندھ
بذ
پائیں
جولائی2018ء
فاف
کالی
سانس
مریم
چائنہ
زمانہ
سگریٹ
##نسٹی
نیشن
بشکریہ
ہٹانے
عبدالقادر
##وط
فیول
ڈھونڈ
ڈری
بحیثیت
##حکمہ
سحر
گھٹنے
##وائے
فیض
##7رنز
ایگری
ہےہ
لیتا
##ومن
شیک
سیکشن
بوری
ممب
ڈریسنگ
پروڈیوسرز
ایشون
ارو
قواعد
بلاول
##63
##ہرا
گوئی
کاکہنا
1992
اسٹیو
##لینا
ہموار
##ایونٹ
شرٹ
عملدرمد
ٹیکسز
حملوں
لیجنڈری
##شاپ
مجید
تحریری
کروش
سوئٹزرلینڈ
##کھے
بنتے
کلیئرنس
##58
کارگو
لوہا
تقاض
رحمت
سٹارز
##وما
##وریٹ
اکتوبر2019ء
کیمر
امیدواروں
##ئیرز
چیلنجز
دنگل
جری
##ہیب
منور
مجاہد
بلایا
لوک
سائرہ
دلانے
معاہدوں
واقف
ایڈجسٹ
پرامید
شئیر
##گہ
برج
یوان
نبھانے
##وسک
##ارہی
دلایا
##لاقی
معد
الطاف
سنبھالنے
##گرد
##ونچر
سیلاب
گنگ
ویزے
لڑکوں
قون
ماور
گپٹل
ریت
چھا
اجراء
دھماکے
لیبار
زیدی
ویلنگٹن
برٹ
کورنگی
##دنیا
##وتی
کاپ
فیاض
عملہ
لاہورنمائندہ
##دوم
کرانا
شراب
کیاس
کنو
گاہی
افراط
پڑتی
##عا
انسپ
##ندوں
اولڈ
اظہرعلی
ہوئ
برائن
خزانے
وان
مافیا
بیت
##انیے
یاب
ٹھوس
پنالٹی
ٹرینٹ
ایریا
ہائیڈ
##نسٹری
کالا
کیک
اپوزیشن
اویس
##بلڈن
چوک
طوفان
کرنیوالے
ماسک
دبائو
وینیو
لوئس
عدالتی
کاپی
اداکارائیں
افواہیں
تھوڑا
ترین0
ناممکن
کائنات
##تھے
##ونک
میڈیم
شاہی
فلس
ماریہ
##رانداز
اکیس
##شیک
##ٹیوں
فاص
کھات
ہمکنار
جیم
ڈاون
نادیہ
##ابیر
امراض
فاصلے
فنانشل
##جواب
چنائی
فرم
خواہاں
پلی
کردے
یکطرفہ
ارہے
طلائی
نیند
ایمنسٹی
##ساب
##یاسی
دوطرفہ
بارڈر
115
ہیروز
گنوا
##ولس
##اتھاکہ
ڈائمنڈ
ڈوپلیسی
عکاسی
بخوبی
##ھو
رینجرز
مجرم
##ذب
ڈرافٹ
ران
جیتنا
غیرمع
##ماہرین
##رساں
##97
اسپنرز
سازگار
سز
لاح
##ینٹ
امپورٹ
واچ
میرپور
اجناس
ہےج
گےانہوں
سکون
انکوائری
ڈائون
مکس
اسٹوری
فروری2020ء
##میز
پابندیوں
کالونی
مینجر
جز
سائز
##وسیم
اسٹینڈ
##اجلاس
شاپنگ
وباء
مراکز
ہنس
اندھی
اسل
نعرے
##کوئی
لیبارٹری
پلانٹس
سائی
لیپ
رنگا
نوکری
بدن
اطراف
کینٹ
##کیلئے
پلاٹ
جانور
بندرگاہ
مشورے
رناوت
##شوں
##جہتی
لیگز
گروپس
##لاگ
دھواں
##پرنگ
اوپ
##ڈان
عبوری
دہی
##62
ہےدوسری
مہمانوں
زکر
برامدی
180
ڈاٹ
ٹا
جوئے
رنگوں
##اجی
کانٹے
##چک
درجنوں
بائیکاٹ
تدابیر
اسٹوکس
وارن
جذبے
سپرلیگ
دمی
پرانا
حسینہ
مشروط
مارنے
لیبر
ہیںفلم
معص
نصرت
نصیب
منے
شناختی
بینر
اسٹیشنز
سنجیدگی
##راپ
2010ء
##ونے
کرائیں
نبھایا
خاور
ہےجس
اٹھویں
ویس
مکئی
منرو
سینئرز
عقیدت
دعوے
نزدیک
طرفہ
نوکیا
گجرات
##اتذہ
ترمیم
اسٹیون
تناظر
کاجول
##ڈاکٹر
بھیجی
دسمبر2019ء
##اوی
اغا
وول
دھمکیاں
جانیوالے
مزہ
حضرات
سٹیشن
رخصت
جوی
##منی
##ختہ
##ویڈ
ہٹا
لاحق
##ائف
##پھر
امیدیں
چھاپ
##8رنز
بائولرز
##گھنٹ
کاروائی
دلیپ
##بلے
شیخو
ماننا
اورقیمت
##یکٹر
رگبی
##لاد
ہیلی
##خزانہ
متاثرین
104
جنوری2019ء
بکھیر
کرسٹی
لگتی
ستمبر2018ء
لگاتے
محی
##گریس
155
کارپٹ
مطالبات
جایا
ہوسکی
دوستانہ
دسمبر2018ء
گانٹ
لکھنے
##وعات
##تین
لکھی
ساہیوال
##جمو
سستے
##69
ہوپ
پی0
ایڈوان
ہنر
##مایا
ہولڈنگ
چوبیس
جون2020ء
انسانیت
ہلاکت
ورکنگ
گراس
##جل
##فیئر
ایڈمنسٹری
جویریہ
ویکس
##عید
##بردار
کھین
بلیو
ٹاون
گنے
فرار
کینو
کھلی
ایڈونچر
##دایت
زونز
انٹیلی
##پیر
##وانڈو
اٹو
##پیٹ
ہین
##برس
دہائیوں
فوائد
سمجھتی
انڈر19
اسرار
پرسن
نچلی
زارا
کوئلے
محکموں
اسٹیک
##ندو
محصول
غیرقانونی
رائیڈرز
ایندھن
امپائرنگ
ورکشاپ
فخرزمان
اراضی
حب
بالوں
گلین
گوشوارے
##نیپ
کمایا
##انٹرنیشنل
ارم
انفراسٹرکچر
بوٹ
##خود
##چارج
##رکے
##بنائے
رکی
اکٹھے
امدادی
ڈراما
کرگئے
سوات
موضوعات
##یوا
زرداری
ہیںواضح
##کامرس
##ائڈ
##موجود
ہڈی
صائمہ
دوری
ورکرز
ومبلڈن
سوئس
رضامندی
فیئر
##راچی
نشریات
بشمول
گاانہوں
بسٹر
##خیص
کمیونیکیشن
ششم
وشمار
چیر
اٹک
جون2018ء
##ٹرو
مخدوم
معاف
ٹرمین
اقتدار
سمندری
ریشم
ورون
کاکہن
##2018
چوٹ
سینچری
حدود
پائلٹ
##انسی
غلطیوں
مچا
عادت
##وڑے
گیلانی
بناء
پشاوراردو
نکالا
نوا
واس
کیمروں
بارشوں
دیپ
جوان
##نیز
چھی
دکھائیں
موڑ
رہاہے
صہیب
اساتذہ
کاس
##راق
##جنسی
شیٹھی
تمغے
فیوچر
##جموعی
ارد
شہرہ
تشخیص
چہرہ
اڈٹ
سینیٹ
تخمینہ
##حسن
##گنا
رسل
گاں
ہوائی
راب
##دریج
ششماہی
شیخوپورہ
ریما
رعایت
ہےتاہم
##61
کیل
درہم
##حقیقت
##یمار
ڈیری
اسٹور
کوا
جمہوریہ
ایمرجنگ
##طلی
ودیا
##الز
جلا
جنوری2016ء
رابر
گرہ
خبررساں
بھلا
جاسکتے
احتیاطی
اندرونی
ڈینی
ایاز
کیمرون
کلا
جانیوالی
سکو
سبق
نقد
##نسالی
میسج
پروموشن
سولر
سمر
##مالک
پشتو
نبھا
بغ
بلڈ
فلک
مشرقی
سرپرست
مارا
##تھم
اگلا
پہننے
ففٹی
700
سٹائل
حوصلے
##مخت
سہولتیں
ایز
ہمد
کووڈ
##بط
کھپت
جنوری2020ء
دیول
شیئرنگ
اگست2018ء
سمیٹ
##یکم
مقدمات
قوی
##جاجی
کٹو
برمدی
شیکھر
##سوشل
##عبدال
جدت
##یشی
نوو
وقفہ
فلی
پہنے
جسٹن
حاضر
اڑا
الق
##سٹاف
##ڈیٹ
##2019
پڑوسی
پتھر
غلطیاں
ایتھلیٹس
بمقابلہ
کااظ
ضوابط
نکھار
مادھوری
مریخ
گنو
جموں
بظاہر
##500
پڑھنے
سوئمنگ
کنارہ
امدن
دائیں
##ستے
کانگریس
ہیلز
گراف
روئے
118
ستارہ
ٹرسٹ
موازنہ
##بود
تعیناتی
کلیدی
اسٹارک
##پولیس
##فون
کرلیے
بتدریج
بھنسالی
دھچکا
عظم
جماعتوں
##اکمل
اتریں
جریدے
##متی
ویزا
جوائنٹ
افواہوں
فلاور
عاقب
##فیصل
گھڑی
سوئپ
مشرق
ظلم
کےساتھ
سرد
##تع
ڈھاکا
اری
##عدگی
بہادر
##معروف
ونس
شردھا
افریقن
سیب
تھیا
اخلاقی
مردان
##کوئ
پراڈ
نامناسب
جرن
کنسل
تھیم
قلندر
بذریعہ
ساٹھ
ملٹی
مچھلی
صدف
ہےیاد
##2008
پونے
لندناردو
اتھلیٹکس
بیو
ذاکر
اجتما
ہرارے
مہندرا
ازدو
یکجہتی
##یتھ
فلمز
شرمن
معطلی
مایا
ویلفیئر
لائیں
پروس
##رکنی
##عتماد
##پورٹر
دیسی
ملازم
وجود
کہتا
نائ
##بہت
اغوا
معصوم
لانڈر
##ظوظ
فحش
بتائیں
ریٹرن
ماسٹرز
کروز
##کنندگان
##اطب
پنڈی
توڑنے
باندھ
بھری
کپتانوں
پروین
نازی
لانڈرنگ
تھرلر
سمان
لب
ناصرف
سرپرستی
عقیل
گرما
مددگار
وفود
کارکنوں
ٹریڈرز
##ولو
احتجاجی
ماحولیاتی
ٹوئیٹ
جنھیں
106
بدلے
اندرون
زلز
ریکوری
قبر
##چاہ
##87
اوز
سٹین
بنگال
فزیکل
شہریت
ووکس
ایڈن
تامل
عمیر
طیب
##سیریز
بلاگ
کیپشن
باولرز
گلاس
نومبر2018ء
کیاجائے
عملدرامد
##برطانوی
##زے
تحقیقی
##صورت
بروئے
نیس
##کلوگرام
##لکہ
مانگی
پاں
ڈور
کاوشوں
سیکھا
لیڈی
رٹسٹ
دیاہے
دلبر
رائٹ
میمن
بحریہ
##گیاہے
##میچوں
سکینڈل
ہانیہ
##جائز
##0روپے
دورانیے
##فار
کیبل
مستعفی
مخاطب
الفطر
##صن
##خواتین
زدہ
مناس
رائٹرز
کینیڈین
پنج
کیام
ہےمزید
##اریوں
لیم
ملائش
براد
##قر
ساوتھ
غیرمعمولی
##2007
ٹکرا
رنر
مفاہم
دنیش
مارچ2016ء
سیارے
زوال
کٹی
مزدور
##ائنز
معائنہ
سپرد
وصولیوں
برے
2006
ہےاور
کبیر
انویسٹ
##ائریکٹر
الرحیم
اوبر
وژن
##تج
نومبر2019ء
تائیک
ٹھاکر
کرسکی
گیااس
##کلچرل
محظوظ
کود
لیفٹ
مونگ
شل
پڑیں
پھیلانے
رے
##علاوہ
خریداروں
117
گیانہوں
درحقیقت
اثاثہ
##گوں
پتی
جواز
ٹوٹل
دستبردار
جولائی2019ء
کروشیا
مناسبت
جوڑا
##است
بنادیا
جٹ
یواے
ایلیٹ
کارل
نامکمل
جہان
پوچھے
کیفیت
وکی
ریٹیل
اسکو
نوب
نریندر
135
107
عطیہ
میا
ساکھ
نیز
سربیا
##ادا
##نہیں
ئٹم
جسکے
میان
ڈیک
##امرس
شرمناک
خامیوں
کوال
##ارہا
فراز
طریقوں
پیرو
##لانگ
108
فیسٹ
##ارتنے
سٹیو
بھگت
الت
ہائیڈرو
محصولات
رت
کھاتے
ولن
اسلئے
کنز
ریکارڈز
خیرباد
ڈائریکٹوریٹ
##روسافٹ
تہلکہ
گیری
ٹھہر
##ٹیننٹ
##عقوب
وں
لگائیں
اپریل2020ء
شروعات
اکائونٹ
ماجد
ممبئ
##سلان
##ثانی
میوزیکل
بینوں
##میگا
پینٹس
ایون
##ٹیوٹ
روہ
ریان
تلخ
انٹ
دیہی
وارننگ
##بند
کینیا
نوم
انڈس
روا
102
ہں
##اہل
پہاڑ
اورک
لیوک
دکھاتے
ڈالے
بناسکے
کمپوز
بائیس
##کردیا
بھرتی
نظیر
ہرادیا
لاج
فرحت
ویلی
ڈیفنس
ریسٹور
اسلامک
##زنی
پسندوں
بانو
ترجیحی
دھار
مارچ2020ء
ہےک
ورث
صدور
##ندیل
فلاحی
قونصل
مڈ
پروگرامز
ذرا
چش
لگانا
جولائی2020ء
اسٹرائیک
روزگاری
سیٹل
نمبرپر
اثاثوں
دورانیہ
##فید
عل
بتانے
##بولی
مینوفیکچررز
چارجنگ
کروڈ
ضابطہ
جانتی
سوزو
بولنے
ہےخیال
##مایہ
استعداد
اسٹورز
رچرڈسن
عاشق
ارشاد
##واج
سرٹیفکیٹ
ماری
اکس
ایلکس
جمیکا
الحمرا
##خال
بیوٹی
شیڈنگ
اسنوکر
بیلٹ
سکرپٹ
ہتھیار
مسی
میسنجر
کھیت
احتیاط
شاہراہ
پروگراموں
نازیبا
ناجائز
ایئرل
جتنے
پنک
##غب
دستاویزی
خلی
ٹانگ
احتساب
جیا
قبضے
جدی
سگنل
##شام
ہےپ
نامے
انتخابی
فروری2016ء
راضی
فلائٹ
اپریل2019ء
بناسکی
جیولرز
یادداشت
جاچکا
سنہری
رقبہ
متنازعہ
##المپور
شق
##ایم
پرستار
عائزہ
وعد
روپیہ
کرر
لگتے
کرت
طبقہ
لیلی
بالن
شری
بھائو
موٹرس
##93
جواد
پولارڈ
یعقوب
نوازشریف
پولیو
نکلے
ہوسکیں
##ندے
حراست
گوری
شواہد
اسمگلنگ
ڈیڈ
فورسز
الائنس
ہز
##ئیس
انقلاب
گیندیں
عین
کشتی
شہزادی
##5روپے
کرادیا
جیکولین
سوزوکی
سوان
خورشید
کوس
لمبے
توہ
کرادی
نظریں
سٹینڈ
##شائر
##واگ
جیول
##ضر
اکٹھا
ظہبی
پالیس
##روش
کراچیکامرس
##فل
لیب
کااظہار
راغب
کھولے
پیپر
مکان
معرکے
چھت
کوارٹرفائنل
لفٹنگ
لپیٹ
انفرا
کراس
ایوی
خاصا
بدلنے
##ڈیل
ذات
یوریا
جنت
حریفوں
##94
2002
کیٹگریز
ڈوپنگ
متحد
بریگی
##مش
اپشن
رہوں
##لیفورنیا
مئی2016ء
1000
عہدوں
ترینئی
نگاہ
کرایہ
رپورٹرپاکستان
زبانوں
سیز
لیڈز
بازو
نرم
فریقین
مائی
##کستان
ابرار
##بج
##گذشتہ
کلر
##مقامی
لڑنے
سائنسی
لاہورکامرس
کریئر
##یمل
پولینڈ
##کانے
##اسانی
116
فرح
میٹرو
کویت
ریٹس
ریحان
انویسٹمنٹ
ذیلی
سٹوکس
ننھے
فلیگ
منع
ناقدین
سلیمان
وینس
ہرگز
ستمبر2019ء
بنو
نیاز
بنوں
گواہ
بڑھانا
ہارڈ
##ڈیس
ایلن
تنو
ند
138
سعود
تصویریں
کریگ
دہشتگر
پارکنگ
معاوضے
##لیک
ونڈوز
##ٹنٹ
##ستانی
سازوں
پائیدار
قدرے
ارسلان
پہنا
اجرا
##ریوں
ہےاگر
ڈپریشن
##76
ایکٹر
لگن
رائٹس
لیاری
ضبط
لالی
##چن
کمنٹس
عبید
کشمیریوں
کرسٹیانو
##وسن
جوابی
محق
کنکشن
گینگ
کمنٹی
خوفناک
##رہا
اسنیپ
کہناہے
ساد
لیفٹیننٹ
مومنہ
##دعا
ملیر
مارے
ریمپ
درمیانی
کرچکا
جوانی
تائیکوانڈو
گائیکی
بوٹیوں
##اسٹار
منیجنگ
عظمی
##سنگ
مرمت
رحجان
بلوں
حقدار
ذہانت
##مون
افسوسناک
##شناک
فیسٹول
مئی2019ء
کمنٹری
کمانڈ
##رہی
سلنڈر
##ڑن
بیئر
فارو
##ومیں
فرٹیل
دوا
##تانا
2022
ارہا
ایڈوانس
داس
اپریل2016ء
##ثنی
ملہوت
کرم
کورین
سرفرازاحمد
مکھر
##صغیر
سونپ
ملکر
امنے
دعائیں
بڑھتا
170
جون2015ء
##رمیں
قاضی
نمی
اسٹیٹس
پھٹی
سنجو
ریویو
کپڑوں
طیارہ
##54
گروپوں
##پسند
##صیب
ایلس
نیازی
داموں
محل
پائونڈ
وارد
سعدیہ
معت
سمجھے
بالز
124
ریزرو
##پانچ
سونپی
الیکٹرانک
ادھ
##ولے
میم
پونٹ
پاتے
##51
ترام
##جرز
متوازن
سلم
##فو
ہوش
##ویلا
##یتی
الہ
##سٹا
کوئین
چارجز
##وزارت
برانڈز
##72
ہوجانے
جک
پمپ
لار
نیر
پولٹری
انڈے
اشد
کوالالمپور
تعارف
ویکسین
ذیل
سمیٹی
تھیاس
##2016
بتائے
پینٹ
ستر
مینڈس
##دیہ
یاسین
زہر
##گرین
##نٹن
سکولوں
کٹوتی
صلاحیتیں
##عروف
بسمہ
یامین
شن
رہنماں
قیوم
ادریس
برابری
احد
فش
چہروں
لاگو
##جاری
##الین
نائی
باسط
نرس
کموڈ
ریفائن
انگوٹ
وضع
##ٹیڈ
##اوید
##اقان
پیسوں
ہیںایک
ملکیت
دھوپ
ٹرینڈ
گرے
سوتی
فرنس
##انہوںنے
مانیٹری
ورزش
فیکٹریوں
##اگیا
حادثہ
عدیل
گہر
پھیلنے
کوری
##اذ
##91
کیپٹل
جناز
##جمع
دائ
اسلحہ
الع
سینسر
قوالی
##قیر
ڈائریکشن
ئر
##56
##کاش
ملائشیا
شہزادہ
بنال
بھرے
گھرانے
##تھک
مبشر
مہیش
##اعلان
ہےانھوں
تکنیک
انسٹیٹیوٹ
##عدالت
ادکارہ
تشویشناک
ملہوترا
کیلیفورنیا
نمائشی
بشری
##رکو
شعور
محفل
زمبابوین
الجھ
##روت
زخم
مزدوروں
کوبھی
اگست2019ء
وادی
##ڈم
156
مائیکروسافٹ
بھجوا
عظمت
##ائلی
دکھانا
قندیل
##بس
قات
کااضافہ
میئر
ڈھانچے
امیج
فوڈز
ہیکرز
وسعت
ہےگزشتہ
ائین
ماورا
ٹربیونل
##کب
##سٹو
کوب
##لیشن
##71
منیجمنٹ
گلزار
میتھ
ہوگئ
اینی
اجن
رز
خصوصیات
##روسہ
350
بلد
لوکی
اعزازی
گڑ
ولا
فنگر
##74
توہین
فینز
رونق
روٹی
##یندرا
119
114
##53
##کارڈ
کھنہ
دھڑ
متفقہ
بااسانی
کالے
ہےبھارتی
صبر
چڑ
چاک
یش
لینڈرز
نقش
بکنگ
گلابی
##وزیراعظم
ٹرمینل
یں
##پڑ
تھےاس
خالق
ٹکٹس
ادبی
ہنگامہ
کیمپس
نارائن
برقی
##52
##والا
کوویڈ
##نیا
##مال
الہی
##جیز
ڈیمانڈ
فاروقی
گوتم
تنصیب
طنز
##چینی
##5رنز
برٹش
بلز
جگہوں
##شبہ
##شوبز
کہل
کمنز
رحمن
پراعتماد
##73
تبصرے
##نئے
##خری
##کرم
ملاقاتیں
تعمیرات
ممنو
##اسکر
##اونڈ
کراچیاسٹاف
مدار
##کارا
مشرف
ڈائیلاگ
103
علامات
صابر
##کوبھی
اسامہ
ہسپانوی
سپیڈ
سلامتی
چوہان
پنڈ
##این
##برن
پہر
نمک
وئیر
##86
کنڈ
##یلہ
ہراسانی
مینوفیکچرنگ
چیرمین
بھرمیں
بخار
نغمہ
ملر
سائیکلسٹ
فتاب
چیمپئین
##79
کہان
استدعا
التوا
ارباز
بھال
##عزیز
##خلا
کیڑوں
لیڈ
کیئے
گروہ
##ٹیلٹی
##مارکیٹ
بزر
میکسویل
یادیں
یونی
عمراکمل
##فیڈریشن
زو
##ادیت
بدنام
مخلو
بیا
سپرے
میوزیم
لاہورپاکستان
مبادلہ
وج
پرائم
باقاعدگی
ریئل
اٹھائیں
شاہینوں
##اظہر
اسٹرکچر
سبزیاں
عنوان
ترامیم
##انڈسٹری
پونٹنگ
##ندا
شوقین
##ڑھائی
قربان
ٹرانسفر
فنانسنگ
گریم
چرچے
پاشا
ہنڈ
ہیںاور
جھوٹی
ٹرینر
فارورڈ
نیتھن
سٹوڈیو
اہلیت
کیپس
##محکمہ
جیتی
ابھیشیک
ربڑ
ساحل
سہولتوں
ڈویژنل
جرا
##زدہ
دیہ
شیو
دبئیاردو
##ژری
کراتے
کنیریا
بتانا
##ٹکا
##الوں
نیہ
تسلی
##فے
سٹور
نوٹوں
میتھیو
نائن
جلس
##ویت
مویشی
پنشن
سونی
چھلانگ
##لٹی
سائنسدان
جتو
##پارٹی
مرکنٹ
لڑکیاں
انوراگ
ناہ
جہلم
##افراد
سٹارک
##اتھی
موخر
نقوی
فراڈ
صابری
جمخانہ
##59
##نڈر
کارنر
کھلانے
چھڑ
عمری
کولمبیا
ہواہے
اندازے
قلم
نظرثانی
انگلی
پراجیکٹس
##رتی
پردے
جولائی2015ء
یادیو
فہمی
##ٹورنامنٹ
برلن
کلینڈ
شرکا
تنہا
نومبر2015ء
کالز
امانت
مشق
انعم
لوکل
اینگرو
##بیہ
فلسط
##یاسر
تقرر
استوار
نکولس
قوال
##84
##یکھ
##دانی
مینیجر
ہستہ
بڑ
فلیٹ
##سلمان
کیاانہوں
اکتوبر2015ء
مشکور
چلائی
شال
##قط
اینکر
##لیکشن
##ائٹیڈ
##نمارک
اینڈریو
مینو
جعفری
##ڈیننس
اصولوں
دوم
بہبود
فروٹ
پلاٹین
##جور
تھاس
اسکورر
ورتھ
##اوں
کیپی
2004
##پہلی
فرام
چارہ
برانز
پیشرفت
تمنا
تعبیر
##کوئٹہ
کمائے
##تایا
کریگا
ترجیحات
##گھنٹے
##ستھان
##بیئن
##وسط
ناروے
وزیرخزانہ
صالح
ڈنمارک
سکوں
اقرا
123
انجلینا
اثاثے
لودھی
سانحہ
جعفر
##طیل
ٹیمپرنگ
کھیلتا
##ویہ
گزارا
رولز
ایڈجسٹمنٹ
##بلین
ڈزنی
انہو
راجا
خانے
##صدر
لیام
##وند
سنبھالا
پیاف
کروائیں
شرا
کریک
چھوڑا
لارا
تعطل
##یسٹر
سبحان
خریدا
ہیڈکوچ
انکھوں
قائل
##نان
##مید
##ائرس
سینٹی
شمیم
بندہ
##ادوسری
فلمسٹار
##ینگی
داریوں
##شیئرز
##لیز
مولا
جھگڑے
##فتہ
113
132
ریلویز
اکرام
چانسلر
112
##ڈرن
غذا
ارٹسٹ
##پول
گرڈ
##ارکیا
نبیل
مثلا
انجوائے
خانیوال
اسپیس
قدمی
برائی
بدع
بحرین
ہیراتھ
خوفزدہ
شروف
باسمتی
گرتی
مرلی
ستمبر2020ء
سدھارتھ
کاغذات
لیونل
بھرا
ٹرپل
##نڈی
شمع
##لیہ
154
فاق
##2020
داستان
ویت
##بادا
وومن
ٹیسٹنگ
##گروپ
سنگر
صنعتیں
پچز
وجے
سیشنز
لاتے
گیان
برصغیر
افواج
جلوے
انشاء
نین
سہواگ
##ینکا
مئی2020ء
جاسوس
نعم
##دور
دہر
مادہ
بھو
طیاروں
خاقان
ستمبر2016ء
سرے
اہلخانہ
کھینچ
جڑے
پاسپورٹ
گیتوں
ایور
بناتا
نادر
چارٹر
ورڈ
شہریارخان
پھولوں
##ائزرز
عسک
رفتاری
##رانا
غنی
##بہترین
رومانس
ٹرانزٹ
##الر
سرگرمی
ٹرانسمیشن
پانڈیا
جسکی
لاپ
سیلف
ناگز
##نوانی
ادائیگیاں
خبرکوبھی
لمحے
منس
بیروز
##روٹ
روزم
مستفید
سویپ
چائلڈ
مرکنٹائل
پرائز
کنسلٹنٹ
##اوت
روکنا
زمینی
##فہ
مفتی
چنے
سونیا
##83
تعطیل
کمزوری
سائیک
##ئہ
ڈائن
کاک
پروٹو
##واح
ذکاء
جڑواں
لوگو
2005
نکھیں
سٹرائیک
فرٹیلائزر
افزا
##یمہ
بھٹہ
نایاب
بحری
شنی
بچایا
بلاشبہ
جینی
##میرا
راح
##گوگل
ریفریز
یورپین
نادرن
##ائلر
دشواری
جنگلات
بقا
##خانے
تال
دیس
ڈا
##89
حمیرا
ملوں
پرنسپل
تذ
##رام
دینگے
##ٹور
126
صنعتکار
##طے
139
##جک
مسلح
کاربن
ارجنٹینا
پش
2008ء
جامعہ
##ماڈل
ئی0
نوشی
بجا
##برت
بھروسہ
ٹریب
گاس
##شیر
##اکارہ
فام
منج
گان
سفری
فالوورز
##راں
2003
سجا
راکٹ
مئی2015ء
مضمون
انسپکٹر
اشت
خیل
ایمی
##سٹل
##ولیا
##خل
ایمن
اگست2015ء
##ڈوس
مطا
##ذیڈنٹ
2001
190
عبدالحفیظ
##وکیٹ
راتوں
ادیب
واجد
نیویار
##2015
چنئی
دکانداروں
##عدم
افرادی
زبردستی
یوٹیلٹی
روحیل
##نیٹ
سٹے
زینب
ناگزیر
رنج
استع
##شرو
کنول
تقریر
دیرینہ
##لٹ
##81
پسندی
ابراہم
اوب
##گون
امیدوں
##یسنگ
ناکامیوں
سیاستدان
عروہ
علامت
خاندانوں
##جمعرات
ہارر
تشہیری
##پرز
لانگ
ہنی
اوردیگر
##سیب
ٹرائل
ریفنڈز
راس
109
تجاوزات
جوئی
##ائزڈ
##ادھر
مارننگ
راجستھان
پروفائل
چلایا
ٹیوٹا
منظم
ایمو
فلائی
حائل
##مس
بیلز
بادل
حلقہ
قیاس
اداکر
جاسکیں
جھگڑا
##فورڈ
مزمل
شکستوں
شاخ
لہسن
لائحہ
ہیش
##نسیاں
ہائے
##پہنچ
لیسکو
##82
لکی
##طرح
دیپیکا
ائٹم
پراسیسر
##وریت
میں3
##ہائی
طلحہ
پنی
##گھر
ایمرجنسی
ہیںتاہم
مہران
##یلو
##امیچ
عیسی
روزنامہ
رابرٹ
ودیگر
##مراہ
عوامل
سیاحوں
اجزا
کافیصلہ
پزیر
شبہ
##امیں
لاہورکلچرل
نیمار
##ءمیں
انکلو
پیچیدہ
برپا
111
پدماوتی
دکانوں
ابھرتے
میں2
گریج
900
##جہانی
جنازہ
خوبی
ریڈی
مواصل
کارلوس
کروانا
ماریا
جملے
موٹرسائیکل
بھارتیوں
خوشیاں
پتوں
اولمپئن
145
خانز
شار
کیوب
مربوط
##امے
دیوانے
دماغی
##ڈائریکٹر
##پرٹ
دیم
ملالہ
##ورش
تاحیات
##جاوید
اعدادوشمارکے
کنٹینرز
##ماجی
##یوزی
قا
##یسوسی
نظرانداز
مرتکب
حلال
ٹچ
کشش
خاک
مسکراہٹ
تجدید
اعصاب
وائن
کرگیا
انتھ
حکمرانوں
نوے
بلدیہ
##وہیب
توقیر
چھٹا
ایڈووکیٹ
##کاروباری
کاظمی
##ملٹن
بینچ
پکچرز
اسپینش
##پیگ
پیٹرن
ائیرپورٹ
بڑھی
مانا
نرمی
نگران
ایمپائر
##گالی
ورن
اسرائیل
روایات
ککس
ناخوش
کلبوں
کرک
##ٹرنز
کالجز
##صنعت
کیلے
سیکنڈز
سونو
کیپیٹل
مٹ
وارڈ
سرمد
معاشرتی
##چوئل
ادمی
مہربانی
مکھ
جیولری
جھنڈے
طالبان
تقاضوں
پرن
##ولڈنگ
##سپل
معنی
ہوتاہے
##انیٹرنگ
دید
ریج
بالخر
ٹھکانے
ورانہ
##ونوش
وافر
##ایل
زیورات
طر
ہارٹ
ویزہ
استحص
سینڈ
یوز
کردئیے
مضر
چلتی
پٹھ
##وانی
##چوکوں
یابی
گیشن
متر
اڑان
رکاوٹوں
چے
##فاسٹ
کراچیپاکستان
امنہ
جون2019ء
ایئرلائن
گولی
بھاو
بنچ
##ڈیسک
رفیع
کمبی
نقاب
##ہوئے
##یرے
منظرعام
سٹیون
1990
منسوب
##وات
136
سسر
##انص
معز
قرارداد
ایجنڈے
پرومو
گنگولی
خادم
فیضان
##افغان
##2010
157
قراردیا
انی
ڈالیں
گفتگوکرتے
ہلکی
##حصص
انویس
ہوب
پانڈے
عادی
نید
##ینیٹر
مصد
حلف
ترا
بریتھ
گراں
بیحد
کھٹ
##لوار
نبھائیں
سواری
فاتحانہ
افتاب
##واب
یت
##چھا
راہی
گور
مقف
موسمی
ہنسی
127
نواحی
194
158
نکلا
اینیمی
سراج
پاکستا
جمہوریت
برہمی
سیٹلائٹ
نز
کارڈز
ہےاسی
حید
گڈ
##سرفراز
گناہ
افاق
جوابات
اپریٹنگ
ویگن
خودکار
کیٹیگریز
الحمراء
##ترجمان
پارٹنرشپ
باخبر
حاضرین
خوردنی
اڑے
##بنم
##ریعے
ٹول
ٹرن
ثمر
بناتی
##نسن
محیط
ہینڈل
ہیزل
ریگ
حکمر
نشتر
کیڑے
ویڈنگ
مثالی
مکھرجی
ہائر
فرض
فلپائن
شہروز
##لٹن
##ومین
مظاہرے
سینیئر
اکیلے
ٹریفورڈ
جہازوں
سوریا
##کاز
اورب
وعدے
##پاشی
کنارے
##وتہ
کھجور
ازالہ
کٹیگری
حکمرانی
##چڑھ
##عرف
تماشائی
کاپٹر
جرنل
ڈائ
بیٹھی
##امان
منصب
فقدان
محققین
کہانیاں
معذور
فارمیٹس
صاحبزادہ
کیانی
##جنرل
موسمیاتی
غفلت
موٹرز
باجی
خریدی
##گلی
کرلئے
ناتھ
عموما
##الفطر
ذکا
##حفیظ
##00کی
##گزار
##ڑنے
کیوئ
##گوئی
مظاہر
دستے
خاصے
کند
مووی
ستمبر2015ء
جوب
باریک
##گاس
جیب
رومانیہ
##الوی
پارٹ
مظاہرین
حام
صدا
##گئیں
ترغ
استحصال
##اعت
##چیمپ
لٹر
##ریٹس
##انسرز
##اثر
راوی
ہےرپورٹ
##ڑیوں
144
ہارے
##یفہ
کانز
منوہر
##طار
##اغ
میلان
خوشبو
##ویلین
ہاسنگ
##انگلش
122
کراچیم
سوالیہ
جوتے
##فک
حاضری
واری
دیوان
داخلے
کھاتہ
##حدی
##ومنٹ
فائن
باکسرز
##عودی
##ذیب
ہیںیاد
سنیئر
ربادا
##حکم
کمنٹیٹر
##کچر
کمانڈر
سیکٹرز
##وو
##ویڈیو
پروازوں
برازیلین
##مولا
یونائٹیڈ
##اسکرین
زیڈ
##گور
##ادیں
ٹیکساس
##میٹ
دلشان
فرخ
انوکھا
##ڑکانہ
ڈسک
بوپ
تبادلے
میں5
بٹھ
کااعلان
خانم
ابھ
ونڈو
ہملٹن
امپورٹرز
اسپانسر
انقلابی
کھر
معمر
پلیئنگ
##پنے
##عثمان
##ینر
225
ہےہم
یوراج
تفریحی
طو
##بتھ
##ٹرافی
پکڑے
ہوبارٹ
##کوار
گےان
##اننگز
لگادی
##30روپے
کارڈف
تہہ
مشعل
عبدالرحمان
منٹو
علوی
ریاستوں
پرامن
پرب
گین
الر
مورال
جوس
میپ
سکوائش
وب
کوت
##سلام
سندھی
فارمز
اپنانے
بدعنوانی
لوں
ودہ
پہاڑی
فرز
خریدار
دھا
فضائیہ
فاض
##یونس
##مارچ2015ء
1500
چھٹیاں
دہشتگردی
عبرت
ہیںک
گالا
لیتھم
سعادت
ورد
اینڈرو
الیگز
جھانوی
کوہاٹ
##کورونا
##شروع
نادہ
پنچ
ایدھی
الیکٹران
رومانٹک
پیپلزپارٹی
پراسرار
##جرم
##خاص
بیٹھنے
پریمئر
اومان
الیسٹر
ٹریبونل
خریدے
##مبابوے
جھیل
چت
چرا
میں10
کابل
سدرہ
دام
چیمپینز
جلال
تدار
جیف
##مائوں
چمپیئن
سمجھوتہ
پست
##ئیڈ
بوتل
مواقعوں
ثمینہ
نیلام
فزیو
چھاپہ
ریسٹورنٹ
بدلہ
پرپ
لیگل
##2013ء
خطوط
یکے
##پریت
ہندسہ
رسم
##فورس
کمب
عطاء
شفافیت
مردہ
##ملتان
عراق
وکلاء
کےبعد
کردیتے
شے
ہےوہ
پوویلین
چوٹی
سکیموں
ہےاب
اہستہ
اگست2020ء
##گلوکار
رسک
فراموش
##ستار
ہےن
لیز
ابتداء
جیکی
گید
چھائے
133
##سمس
سوچنا
دھوکہ
لور
##صارف
بنالیا
نیہا
کراچیاس
134
فارن
ہیئر
سپرہ
شلپا
##خصوصی
ترغیب
بہو
لکڑی
عسکری
ئس
پریذیڈنٹ
137
ڈرائیونگ
واہگہ
مچانے
##سندھ
ہیںب
##افل
دوروں
##گلینڈ
اعدادو
بنالیے
ہےں
دہلیاردو
ریورس
گہرا
مسابقت
مسرت
##نل
چتر
##برٹ
برائلر
جائےگا
##یواضح
قاتل
131
جمہوری
املہ
زار
بڑھائی
شبنم
لاہورمیں
##گوئ
عورتوں
نند
کوریج
##وریز
رشوت
ظہور
چکن
ڈیانا
راستوں
##خیبر
ڈرگ
##انسہ
اڑھائی
مدی
121
کیپنگ
تلف
حلیم
##شکل
اوکا
ریح
##پشن
کوریو
لیکچر
گانٹھوں
##جھی
##گوئے
##فرا
ہیںہ
روف
گرہن
فردوس
شہاب
ہنری
شج
کر15
##اسٹیٹ
سوٹ
تحفے
بھرنے
کلیکشن
میونسپل
کلم
ٹریکٹر
دورئہ
تھایہ
گروتھ
دریائے
ڈارک
##ایشیا
##بناکر
##پہلا
اولمپیئن
تنازعہ
کیاکہ
پرینی
